{"version":"1.0","truncation":null,"padding":null,"added_tokens":[{"id":0,"content":"[PAD]","single_word":false,"lstrip":false,"rstrip":false,"normalized":false,"special":true},{"id":1,"content":"[BOS]","single_word":false,"lstrip":false,"rstrip":false,"normalized":false,"special":true},{"id":2,"content":"[EOS]","single_word":false,"lstrip":false,"rstrip":false,"normalized":false,"special":true}],"normalizer":null,"pre_tokenizer":{"type":"ByteLevel","add_prefix_space":false,"trim_offsets":true,"use_regex":true},"post_processor":null,"decoder":null,"model":{"type":"BPE","dropout":null,"unk_token":null,"continuing_subword_prefix":null,"end_of_word_suffix":null,"fuse_unk":false,"byte_fallback":false,"vocab":{"[PAD]":0,"[BOS]":1,"[EOS]":2,"!":3,"&":4,"'":5,"(":6,")":7,"*":8,"+":9,",":10,"-":11,".":12,"/":13,"0":14,"1":15,"2":16,"3":17,"4":18,"5":19,"6":20,"7":21,"8":22,"9":23,":":24,";":25,"<":26,"=":27,">":28,"?":29,"A":30,"B":31,"C":32,"D":33,"E":34,"F":35,"G":36,"H":37,"I":38,"J":39,"K":40,"L":41,"M":42,"N":43,"O":44,"P":45,"Q":46,"R":47,"S":48,"T":49,"U":50,"V":51,"W":52,"X":53,"Y":54,"Z":55,"[":56,"\\":57,"]":58,"^":59,"_":60,"a":61,"b":62,"c":63,"d":64,"e":65,"f":66,"g":67,"h":68,"i":69,"j":70,"k":71,"l":72,"m":73,"n":74,"o":75,"p":76,"q":77,"r":78,"s":79,"t":80,"u":81,"v":82,"w":83,"x":84,"y":85,"z":86,"{":87,"|":88,"}":89,"~":90,"±":91,"´":92,"·":93,"Â":94,"Ã":95,"â":96,"Ċ":97,"Ġ":98,"Ĩ":99,"Ĵ":100,"Ġ\\":101,"in":102,"^{":103,"le":104,"ty":105,"}{":106,"ra":107,"rac":108,"frac":109,"_{":110,"Ġ=":111,"la":112,"(\\":113,"is":114,"ys":115,"pla":116,"tyle":117,"dis":118,"displa":119,"ystyle":120,"displaystyle":121,"ig":122,"}\\":123,"ht":124,"ight":125,"right":126,"inf":127,"infty":128,"ft":129,"left":130,"sin":131,")^":132,"{\\":133,"^{-":134,"pi":135,"int":136,"Ġx":137,"rt":138,"os":139,"ta":140,"Ġ(":141,")\\":142,"Ġ+":143,"su":144,"}^{":145,"cos":146,"sum":147,"Ġ-":148,"Ġd":149,"ma":150,"sq":151,"sqrt":152,")}":153,"}^":154,"-\\":155,"Ġe":156,")}{":157,"+\\":158,"th":159,"im":160,"am":161,"sinh":162,"dfrac":163,"lim":164,"to":165,"al":166,"amma":167,"^\\":168,"tan":169,"ot":170,"}{\\":171,"}}":172,"Ġ(-":173,"Ġdx":174,"}^{\\":175,"Ġy":176,"ln":177,"Ġf":178,"eta":179,"dot":180,"{(":181,"Gamma":182,"om":183,"cdot":184,"))":185,"Ġk":186,")!":187,"^{\\":188,"}(":189,"Ġ0":190,"pa":191,"ial":192,"inom":193,"binom":194,"part":195,"partial":196,"Ġ\\,":197,"Ġt":198,"math":199,"dx":200,"Ġn":201,"theta":202,"cosh":203,"]{":204,"ph":205,"}^\\":206,"ro":207,"})":208,"}(\\":209,"Ġdt":210,"_{-\\":211,"Ġ{":212,"Ġ1":213,"Ġz":214,"pro":215,"}{(":216,"ho":217,"Ġ2":218,"ar":219,")}{\\":220,"Ġa":221,"ose":222,"cho":223,"choose":224,"pha":225,"alpha":226,"prod":227,"bf":228,"mathbf":229,"lo":230,"ex":231,")(":232,"[\\":233,"ge":234,"tanh":235,")}\\":236,"}}{":237,")^{":238,"de":239,"{(-":240,"rge":241,"large":242,"qu":243,"xy":244,"ad":245,")-":246,"quad":247,"arc":248,",\\":249,"dt":250,"log":251,"beta":252,"Ġi":253,"ĠJ":254,"ab":255,"ĠD":256,"!}":257,"det":258,"igma":259,"it":260,"sigma":261,"Ġb":262,"gamma":263,"=\\":264,"10":265,"ĠĊ":266,"limit":267,"limits":268,"_{\\":269,"exp":270,"nu":271,"}-":272,"arctan":273,"}-\\":274,"er":275,"Ġ3":276,"nab":277,"nabla":278,"(-":279,"ĠF":280,"}}\\":281,"lta":282,"eg":283,"Ġg":284,")!}":285,"ega":286,"cdots":287,"omega":288,"ec":289,"rm":290,"_\\":291,"ext":292,"text":293,"mb":294,"!\\":295,"da":296,"},":297,"lamb":298,"lambda":299,"op":300,"Ġ(\\":301,"tor":302,"era":303,"opera":304,"operator":305,"ame":306,"name":307,"operatorname":308,")+":309,"ĠB":310,"sec":311,")_":312,"|\\":313,"ps":314,"^{-\\":315,")}{(":316,"mathrm":317,"ĠK":318,"'(":319,"ĠC":320,"ĠI":321,"Ġ-\\":322,"phi":323,"cot":324,"mu":325,"ax":326,"12":327,"Ġu":328,"xt":329,"iint":330,"psi":331,"co":332,"..":333,"Ġq":334,")\\,":335,"coth":336,"ĠA":337,")^{-":338,"xi":339,"Ġs":340,"big":341,")^{\\":342,"De":343,"Ġc":344,"Delta":345,"Ġh":346,"ov":347,"ĠP":348,"),":349,"over":350,"zeta":351,"!(":352,"=-\\":353,"dots":354,")}}":355,"Ġ4":356,"Ġp":357,")=":358,"}}{(":359,"es":360,"!)^":361,"tau":362,"ĠS":363,")!(":364,"))^":365,"Ġ}":366,")!}{(":367,"}+\\":368,"})\\":369,"}}{\\":370,")]":371,"Ġj":372,"))}":373,")-\\":374,"Ġ5":375,")!}{":376,"Ġr":377,"})^":378,"})}":379,"Ġm":380,"Ġdy":381,"\\,":382,"cs":383,"oint":384,"Ġdz":385,"}+":386,"csc":387,"row":388,"^{-(":389,"arrow":390,"delta":391,"{(\\":392,"lon":393,"rightarrow":394,"/\\":395,"]^":396,")=\\":397,"epsi":398,"epsilon":399,"))}{\\":400,"))\\":401,")!!":402,"Ġ>":403,"16":404,")+\\":405,"Ġds":406,"or":407,"st":408,"dy":409,"}_":410,"bx":411,"}^{+\\":412,"100":413,")|":414,"imes":415,"^{(":416,"}\\,":417,"Ġw":418,"ĠG":419,"nx":420,"Ġ6":421,"times":422,"...":423,"Ġv":424,"ĠL":425,")}(":426,"Big":427,"cal":428,"ĠH":429,"mathcal":430,"Ġ{\\":431,"ap":432,"Ġ|":433,"})}{\\":434,"Ġ7":435,"!}{":436,"}(-":437,"at":438,"ldots":439,"Ġ\\;":440,")/":441,"bar":442,"27":443,"bs":444,"bigg":445,"ck":446,"))}{":447,")}+\\":448,"subs":449,"Re":450,"tack":451,"erf":452,"ne":453,"substack":454,"nn":455,"|^":456,"}^{-":457,"\\{":458,"xe":459,"zt":460,"{-":461,"}}}":462,"prox":463,"approx":464,"tfrac":465,")))":466,"]\\":467,"flo":468,"floor":469,"arcsin":470,"Ġ...":471,"Ġ<":472,"))+\\":473,"ĠR":474,"]}":475,"!}\\":476,")^\\":477,"\\}":478,"ix":479,"Ġdu":480,"hi":481,"kx":482,"on":483,"ij":484,"var":485,"})}{":486,"''":487,"dz":488,"(-\\":489,")!\\":490,"}))":491,"Ġ[":492,"xyz":493,"Ġ\\\\":494,"11":495,"\\!\\":496,"Ġxy":497,"ĠdA":498,"},\\":499,"20":500,"64":501,"50":502,"ion":503,"rho":504,"Ġ/":505,"ds":506,"Phi":507,")}}{":508,")}-\\":509,"}}(":510,"^+":511,"iy":512,"ĠX":513,"varepsilon":514,"ĠE":515,"Bigg":516,"((":517,"Ġ8":518,"]^{":519,"}=":520,"tr":521,"}}+\\":522,"15":523,"leq":524,"))-\\":525,"[(":526,"_{-":527,"ct":528,"!^":529,"gn":530,")!}\\":531,"|}":532,"/(":533,"ĠY":534,"ĠM":535,"ine":536,"cx":537,"sgn":538,"Ġ:":539,"}{(-":540,"el":541,"neq":542,"18":543,"Ġ=\\":544,"line":545,"~~":546,")}-":547,"24":548,"}{(\\":549,"ĠW":550,"pm":551,"''(":552,"ir":553,"erfc":554,"overline":555,"mn":556,"})^{-":557,"du":558,"!}{(":559,"\\{\\":560,"lfloor":561,"rfloor":562,"Ġo":563,"))^{-":564,"^+}":565,"an":566,"|_{":567,"ĠT":568,"32":569,"};":570,"))=":571,"geq":572,")!!}":573,"Ġ:=":574,")!!}{(":575,"}_{":576,"Ġdxdy":577,")}\\,":578,"yt":579,"~\\":580,")}{(\\":581,"]^{-":582,")}=":583,"dxdy":584,"]_{":585,"iz":586,"+(":587,"un":588,"17":589,")}}{\\":590,"maps":591,"irc":592,"mapsto":593,"circ":594,"13":595,"Ġ9":596,"')":597,"xx":598,"ik":599,"ĠQ":600,"nt":601,"ere":602,"mx":603,")\\,\\":604,"81":605,"tx":606,"ell":607,"Ġ{}_":608,"](":609,"))}\\":610,"AB":611,"}}-\\":612,"bc":613,")!^":614,"14":615,"^-":616,"_{|":617,")^{-\\":618,"19":619,")}=\\":620,"qx":621,"hat":622,"|=":623,"(|":624,"ii":625,"ĠV":626,"the":627,"xz":628,"here":629,"-(":630,"ĠU":631,"Ġl":632,"iv":633,"bt":634,"}=\\":635,"99":636,"Ġof":637,"kn":638,"})^{":639,"{|":640,"}[":641,")},":642,"Ġthe":643,"}\\,\\":644,")}}\\":645,"25":646,"kt":647,"Li":648,"ĠZ":649,"ĠN":650,"})(":651,"',":652,"]_":653,"Ġ10":654,"arccos":655,")})":656,"li":657,"Im":658,"dA":659,"ction":660,"\\\\":661,"]{\\":662,"vec":663,"unction":664,"}})":665,"Ġfunction":666,"^*":667,")|^":668,")>":669,"<\\":670,"jk":671,"Ġ|\\":672,"}^{(":673,";\\":674,"ac":675,"})-\\":676,"dv":677,"|}\\":678,"yz":679,")}+":680,"kk":681,"Ġ12":682,"22":683,"]{(":684,"],":685,"by":686,"ol":687,"arg":688,"il":689,"si":690,"where":691,"Ġ~":692,"21":693,"})\\,":694,"Ġ=:":695,"^-}":696,"})+\\":697,"))\\,":698,")/\\":699,",-":700,"68":701,"))^{":702,"23":703,"}/":704,"orm":705,"Ġ{(-":706,"ny":707,"(|\\":708,"ess":709,"]=":710,"))(\\":711,"\\,\\":712,"Ġdv":713,"biggr":714,"}]":715,"}|":716,")))}":717,"sech":718,"^{-|":719,"Ġ{(":720,"Ġdw":721,"Tr":722,"))))":723,"!\\!\\":724,"45":725,"72":726,"biggl":727,"200":728,"36":729,"ib":730,"}}\\,":731,"Ġ}{":732,"arge":733,"96":734,"Ġ*":735,"max":736,"Large":737,"Ġ~~":738,"ns":739,"75":740,"=-":741,"Om":742,"cap":743,"Omega":744,"!)":745,"hf":746,"xF":747,"}}}{":748,"28":749,"]^{\\":750,"ut":751,"ula":752,"for":753,"re":754,")))^":755,"ic":756,"Ġform":757,"48":758,"[-\\":759,"kb":760,"pli":761,"ve":762,"}}-":763,"}}=":764,"})}\\":765,")|_{":766,"Ġ...,":767,")(\\":768,"Psi":769,"))-":770,"tz":771,"Ġxyz":772,"Ġformula":773,"30":774,"ce":775,"Ġxe":776,"]{-":777,"!}{\\":778,"+(-":779,".\\":780,"]}{\\":781,"Ġbx":782,")*":783,"yy":784,"}~\\":785,"impli":786,"}},":787,"der":788,")_+":789,"dotsb":790,"implies":791,")_{":792,"84":793,"if":794,"ky":795,"nm":796,"|)":797,"}~":798,"Ġ_":799,"varphi":800,"'s":801,"min":802,"^{(\\":803,"Ġex":804,"Ġad":805,"Ġae":806,"uv":807,"as":808,"ith":809,"ze":810,"Ġ\\,\\":811,"))}-\\":812,"}^{[":813,"})^{\\":814,"and":815,"'_":816,"sim":817,"}}{(\\":818,"!\\,":819,"54":820,"chi":821,"Ġcosh":822,")))+\\":823,")!}}":824,"}))}":825,")}}+\\":826,"'}":827,"})=":828,"Ġ27":829,"125":830,"ilde":831,"ni":832,"sup":833,"Ġfor":834,"})+":835,"od":836,"px":837,"}'":838,"ĠO":839,"Ġdr":840,"}}}{\\":841,")](":842,"et":843,"xf":844,"^+}\\":845,"),\\":846,"33":847,"nd":848,"yx":849,"^{-(\\":850,"))+":851,"49":852,"]}{":853,"ts":854,"||":855,"race":856,")}^":857,"})-":858,")_\\":859,"nb":860,"}{|":861,"}\\{":862,"}}}\\":863,"pr":864,"}\\!\\":865,"iiint":866,"{{":867,")}{|\\":868,"Ġnx":869,"arctanh":870,"ikx":871,"vert":872,"]+\\":873,"]\\,":874,"nf":875,"}}^":876,"]{|":877,"+|":878,"cu":879,"kh":880,"|_":881,"Ġ(-\\":882,"35":883,"40":884,"76":885,"90":886,"az":887,"brace":888,"ke":889,"kr":890,"Ġdk":891,"Ġ16":892,")(-":893,"Ġbd":894,"31":895,"})^\\":896,")!!}{":897,"[(-":898,"]=\\":899,"pq":900,"sx":901,"xD":902,"|<":903,"({":904,"yf":905,"Ġis":906,"Ġand":907,"128":908,"Ġdudv":909,"ple":910,"sh":911,")/(":912,"'^":913,"Le":914,"te":915,"tilde":916,"Ġin":917,"}\\;":918,")))\\":919,"ive":920,")~":921,"Ai":922,"na":923,"qf":924,"|+\\":925,"})=\\":926,"120":927,")]^":928,"\\!\\!\\!\\":929,"under":930,")=-\\":931,"))}}":932,",...":933,"768":934,"Ġ}\\":935,"ral":936,"ftrightarrow":937,")}(\\":938,")^{-(":939,"Ġwhere":940,"iff":941,"cup":942,"Leftrightarrow":943,"!}}":944,"en":945,"ixt":946,"kap":947,"ule":948,"zw":949,"{|\\":950,"})}{(":951,"Ġ,":952,"Ġkx":953,"Ġax":954,"ation":955,"ABC":956,"kappa":957,"*{":958,"-|":959,"Sigma":960,"ast":961,"dr":962,"id":963,")))}{\\":964,"essel":965,"Ġ~~~":966,"26":967,"Ei":968,"kl":969,"pt":970,"Ġ^":971,")^{(-":972,")=(":973,"'''(":974,"[(\\":975,"]^\\":976,"xs":977,"Ġft":978,"Ġsin":979,"Ġ}}":980,"Ġ\\{":981,"}{|\\":982,")})}":983,")}}{(":984,"}}=\\":985,"))^{\\":986,"|^{":987,"}|^":988,"quation":989,"ĠDf":990,"!}-\\":991,"):":992,"nk":993,"Ġ\\|":994,"sinc":995,")\\}":996,"},-\\":997,"2019":998,"256":999,"uler":1000,"'\\":1001,"00":1002,"78":1003,"fg":1004,"us":1005,"Ġ)":1006,"Ġco":1007,"}),":1008,"Ġcom":1009,"!}{(\\":1010,"*\\":1011,"cd":1012,"ĠdV":1013,")}}}":1014,"Ġequation":1015,"98":1016,"Euler":1017,"ka":1018,"set":1019,"Ġint":1020,"Ġcos":1021,")}}-\\":1022,"Ġ11":1023,"Ġ15":1024,"Ġ18":1025,")-(":1026,"csch":1027,"ivat":1028,"ession":1029,"CA":1030,"hbar":1031,"ye":1032,"zf":1033,"{-\\":1034,"}-(":1035,"))^\\":1036,")|}":1037,"oly":1038,"plex":1039,"!)^{-":1040,"60":1041,"]-":1042,"equ":1043,"ji":1044,"kT":1045,"with":1046,"zq":1047,"zx":1048,"})}}":1049,"_{[":1050,"ign":1051,"ime":1052,"bigr":1053,"Ġcd":1054,")|)":1055,"dudv":1056,",...,":1057,"(;":1058,")}^{":1059,"\\;":1060,"hy":1061,"nom":1062,"res":1063,"|)\\":1064,"ing":1065,")))}{":1066,"})/":1067,"Ġ24":1068,"Ġcis":1069,"Ġexpr":1070,"olynom":1071,"Ġexpression":1072,"olynomial":1073,"29":1074,"ak":1075,"cz":1076,"dw":1077,"no":1078,"tion":1079,"ux":1080,"}))+\\":1081,"}',":1082,"Ġbf":1083,"top":1084,")))-\\":1085,"bigl":1086,"Ġpolynomial":1087,"34":1088,"57":1089,"Bi":1090,"bn":1091,"ie":1092,"rs":1093,"Ġ?":1094,")}}=":1095,")>-":1096,"Ġaei":1097,"[-":1098,"dk":1099,"mk":1100,"mid":1101,"qt":1102,"rf":1103,"Ġxf":1104,")\\}(":1105,"mathop":1106,"}))}{\\":1107,"ivative":1108,"equiv":1109,"-(-":1110,"=(-":1111,"Res":1112,"jj":1113,"mp":1114,"ng":1115,"rx":1116,"ind":1117,"))(":1118,"dotsm":1119,"ijk":1120,"};\\":1121,"69":1122,"Right":1123,"]-\\":1124,"em":1125,"hs":1126,"km":1127,"vt":1128,"Ġab":1129,")=(-":1130,")]=\\":1131,"Rightarrow":1132,",-\\":1133,"79":1134,"ay":1135,"bi":1136,"nh":1137,"tk":1138,"wt":1139,"|^{-":1140,"|^{\\":1141,"}'(":1142,"Ġ}}{":1143,"rans":1144,"Ġder":1145,"Ġerf":1146,"limsup":1147,"otimes":1148,")!\\,":1149,"Ġ20":1150,")]|_{":1151,"Ġwith":1152,"''''":1153,"144":1154,"192":1155,"59":1156,"]}\\":1157,"^(":1158,"jx":1159,"ymb":1160,"{{\\":1161,"})^{-\\":1162,"!}+\\":1163,"eri":1164,"Ġ64":1165,"Ġtheor":1166,"Ġcomplex":1167,"Ġinteg":1168,"ymbol":1169,").":1170,"56":1171,"bol":1172,"kj":1173,"my":1174,"sign":1175,"tt":1176,"{[":1177,"|-":1178,"|-\\":1179,"Ġ(|":1180,"))=\\":1181,"Ġkind":1182,"pace":1183,"Ġbc":1184,")!},":1185,"ĠAe":1186,"))}{(\\":1187,"dsymbol":1188,"~~~":1189,"boldsymbol":1190,")_{\\":1191,"38":1192,"384":1193,"BD":1194,"\\|":1195,"]+":1196,"hn":1197,"{}_":1198,"|,":1199,"ĠdS":1200,"Ġyz":1201,"}))}{":1202,"Bigl":1203,"Bigr":1204,"}))-\\":1205,"):=\\":1206,"'[":1207,"'(\\":1208,"86":1209,"hk":1210,"mt":1211,"xq":1212,"|}}":1213,"|<\\":1214,"}}^{\\":1215,"}{[":1216,")\\;":1217,"}}}}":1218,")),":1219,")!!\\":1220,"}))^":1221,"abc":1222,")+(":1223,")=-":1224,"))}-":1225,"^*(":1226,"ransf":1227,"Ġtheorem":1228,"Ġintegral":1229,"!}(":1230,"(^":1231,"80":1232,"97":1233,"ur":1234,"yi":1235,"leftrightarrow":1236,"ome":1237,")))-":1238,")!!(":1239,")^{(":1240,"(-(":1241,"Ġ[(":1242,"ĠEi":1243,"^*(\\":1244,"-[":1245,";-":1246,"cm":1247,"ef":1248,"ks":1249,"per":1250,"se":1251,"tf":1252,"wi":1253,"}}^{":1254,"Ġor":1255,"Ġ-(":1256,"Ġdf":1257,"Ġfir":1258,")!}{\\":1259,"108":1260,"Ġmx":1261,"erfi":1262,"729":1263,"underbrace":1264,"nolimits":1265,"Ġbfg":1266,"Ġderivative":1267,"Ġfirst":1268,"BA":1269,"Bessel":1270,"])":1271,"lm":1272,"|>":1273,")))=":1274,"ger":1275,"1024":1276,"})}-\\":1277,"1000":1278,")_+^":1279,"'-":1280,"39":1281,"65":1282,"bd":1283,"be":1284,"he":1285,"lli":1286,"ms":1287,"not":1288,"rvert":1289,"zn":1290,"|}{\\":1291,"}}^\\":1292,"}_{\\":1293,"}=-\\":1294,"Ġ;":1295,"ĠRe":1296,"}{{":1297,")^(":1298,"Ġxz":1299,"mal":1300,"}})\\":1301,")}\\,\\":1302,"ition":1303,"mber":1304,"ĠBessel":1305,"Ġsgn":1306,"long":1307,")|_":1308,"500":1309,"^-}\\":1310,"37":1311,"512":1312,"89":1313,"]{(-":1314,"bk":1315,"bo":1316,"fo":1317,"xu":1318,"zz":1319,"|+":1320,"}^{(\\":1321,"Ġye":1322,"Ġnu":1323,"Ġ14":1324,"adj":1325,"Ġiz":1326,"Ġby":1327,"Ġ32":1328,"(-|":1329,"}}\\,\\":1330,")](\\":1331,"...+":1332,"Ġ|_{":1333,"Ġ\\;\\;":1334,"pmod":1335,"')^":1336,"'})":1337,"+}":1338,"[;":1339,"ae":1340,"ih":1341,"ki":1342,"kq":1343,"nr":1344,"po":1345,"Ġ[\\":1346,")})^":1347,"}^*":1348,")}{|":1349,"))]":1350,")))}\\":1351,"Ġdsdt":1352,")|}{":1353,"})}{|\\":1354,"'''":1355,"ntial":1356,"nstan":1357,"rall":1358,"iffere":1359,"Ġconstan":1360,"ransform":1361,"forall":1362,"Ġnumber":1363,"'}{":1364,"ed":1365,"gger":1366,"np":1367,"nz":1368,"{}":1369,"|}+\\":1370,"^{(-":1371,"Ġdiffere":1372,"}}+":1373,"Ġyf":1374,"Ġik":1375,"Ġiy":1376,"}-(-":1377,"dagger":1378,")]=":1379,"169":1380,"''''(":1381,"2018":1382,"ution":1383,"hspace":1384,"!)}":1385,")~\\":1386,"=(":1387,">-":1388,"At":1389,"BCA":1390,"XY":1391,"\\}(":1392,"aq":1393,"bz":1394,"cis":1395,"dbinom":1396,"ity":1397,"sy":1398,"|}}{":1399,"}|}":1400,"}/(":1401,"Ġ\\}":1402,"}^{(-":1403,"cosec":1404,"Ġtransform":1405,"detilde":1406,"ĠCe":1407,"Ġqf":1408,"Ġdydx":1409,"}+(":1410,"Ġfunctions":1411,"nsion":1412,"ngle":1413,"widetilde":1414,"Ġconstant":1415,"-(\\":1416,"95":1417,"AC":1418,"\\}\\":1419,"mod":1420,"zy":1421,"|})":1422,"|=\\":1423,"}\\!\\!\\":1424,")}~":1425,"}}(\\":1426,"))/":1427,"}(-\\":1428,"}))\\":1429,"}{((":1430,"!},":1431,"Ġ36":1432,")|<\\":1433,"xxx":1434,"underset":1435,")<":1436,")...":1437,"47":1438,"576":1439,"Ax":1440,"Bx":1441,"Dt":1442,"La":1443,"cn":1444,"df":1445,"iat":1446,"kz":1447,"me":1448,"sk":1449,"smal":1450,"|)}":1451,"|+|":1452,")})\\":1453,")}}-":1454,"))/\\":1455,")!)^":1456,"]{|\\":1457,"Ġ{_":1458,"105":1459,"textrm":1460,"!\\!":1461,"},~~~":1462,"ĠCA":1463,"Ġseri":1464,")}}}{\\":1465,")]}":1466,")]}{":1467,")]}{\\":1468,"Ġme":1469,"\\!\\!":1470,"tric":1471,"1828":1472,"Ġdxdydz":1473,"dxdydz":1474,"999":1475,"}'|}":1476,"Ġcdh":1477,"Ġorder":1478,"notin":1479,"small":1480,"Ġseries":1481,"!)}{":1482,")[":1483,")}^{\\":1484,"))}{(":1485,"+(\\":1486,"63":1487,"74":1488,"92":1489,"Df":1490,"Lam":1491,"Lon":1492,"ai":1493,"art":1494,"fh":1495,"lbrace":1496,"nT":1497,"out":1498,"pF":1499,"rime":1500,"tu":1501,"ub":1502,"xb":1503,"|)}{":1504,"}[\\":1505,"Ġma":1506,"^{[":1507,")}~\\":1508,"ton":1509,"}}(-":1510,"))^{-\\":1511,"pansion":1512,"})]":1513,"})_":1514,"})(\\":1515,"Ġ{}_{":1516,"def":1517,"Ġit":1518,"},}":1519,"ĠAx":1520,"Ġst":1521,"Ġceg":1522,"Ġprime":1523,"Ġre":1524,")!!}\\":1525,")|}\\":1526,"})}{(\\":1527,"Biggl":1528,"Biggr":1529,"Ġ81":1530,"))))))":1531,"Ġ~~\\":1532,")_+^{":1533,"Ġexpansion":1534,"prime":1535,"Ġ}}{{":1536,"Ġerfc":1537,"pone":1538,"Ġmeth":1539,"Long":1540,");":1541,",}":1542,"CD":1543,"Ci":1544,"];":1545,"bda":1546,"cy":1547,"dS":1548,"di":1549,"eq":1550,"iu":1551,"sp":1552,"tw":1553,"ver":1554,"vol":1555,"xJ":1556,"|)^":1557,"})))":1558,"^{|":1559,"rank":1560,"_{|\\":1561,"place":1562,"Ġxt":1563,")}))":1564,")})-\\":1565,"}}[":1566,"Ġyt":1567,"{(-\\":1568,"ĠkT":1569,")!}(":1570,")!(-":1571,")!/(":1572,"Ġny":1573,"})|":1574,"})_{":1575,"Ġ{-":1576,"Ġac":1577,"}}{{\\":1578,"Ġikx":1579,"Ġbe":1580,"ermin":1581,"Ġ30":1582,"),}":1583,")=(\\":1584,"!)^\\":1585,")]\\":1586,")|+\\":1587,"\\{-\\":1588,")}}{{":1589,"~~\\":1590,"756":1591,"ptic":1592,"Ġcosec":1593,"5772":1594,"lliptic":1595,"Lambda":1596,"Ġmethod":1597,"!}(\\":1598,"'d":1599,"')\\":1600,"',\\":1601,"*[":1602,"/[":1603,"01":1604,"46":1605,"83":1606,";-\\":1607,"Cov":1608,"Elliptic":1609,"])^":1610,"]}}":1611,"dg":1612,"ew":1613,"nq":1614,"sC":1615,"sz":1616,"some":1617,"|))":1618,"|}(":1619,"|)+":1620,"}|\\":1621,"Ġto":1622,"Ġln":1623,"Ġmath":1624,"Ġsec":1625,"ist":1626,"tation":1627,"}^{+":1628,"}^{[\\":1629,"Ġdet":1630,"Ġden":1631,")},\\":1632,")})=":1633,"}}_{":1634,")))^{-":1635,"))))}":1636,"))|_{":1637,"Ġky":1638,")!}(\\":1639,")!}-":1640,"Ġtf":1641,"Ġnt":1642,"]{(\\":1643,"})/(":1644,"Ġ{{":1645,"Ġzt":1646,"abcd":1647,"itx":1648,"Ġbi":1649,"Ġbt":1650,"ĠBe":1651,"|\\,":1652,")^{\\!":1653,"Ġcx":1654,")}}+":1655,"Ġpx":1656,"))}=":1657,"))}+\\":1658,"})})":1659,")|))":1660,"]}=\\":1661,"243":1662,"288":1663,"minus":1664,"!\\,(":1665,"Ġbdg":1666,"setminus":1667,"Ġdenot":1668,"!}^":1669,"'(-":1670,"(,":1671,"([":1672,"07":1673,"43":1674,"62":1675,"87":1676,"\\}}":1677,"]'":1678,"]}(":1679,"aus":1680,"ba":1681,"bp":1682,"imath":1683,"iux":1684,"mm":1685,"our":1686,"qe":1687,"qquad":1688,"rbrace":1689,"rdr":1690,"tv":1691,"tdt":1692,"wo":1693,"xw":1694,"|/":1695,"|))\\":1696,"Ġ_{":1697,"Ġ}{\\":1698,"Ġpro":1699,"Ġsech":1700,"inition":1701,"inity":1702,"}{-":1703,"_{(":1704,"(\\{":1705,"infinity":1706,")))}-\\":1707,"}((":1708,"Ġ21":1709,"Ġ28":1710,"are":1711,"Ġan":1712,"Ġib":1713,"ite":1714,"ĠAB":1715,"Ġce":1716,")}}=\\":1717,")!}{(-":1718,")]-":1719,"})}=":1720,"\\,(":1721,"subset":1722,"]\\,\\":1723,"}=-":1724,"|_{(":1725,"1728":1726,"lic":1727,")|_{(":1728,"Ġexpone":1729,"Ġpolynomials":1730,"perbo":1731,"577215":1732,"EllipticF":1733,"!^{":1734,"!^{-":1735,"){":1736,"05":1737,"375":1738,"=[\\":1739,">\\":1740,"Bt":1741,"TB":1742,"[-(":1743,"\\})":1744,"]|_{":1745,"au":1746,"atop":1747,"hz":1748,"ier":1749,"jl":1750,"kC":1751,"lvert":1752,"ndx":1753,"nce":1754,"pe":1755,"rel":1756,"style":1757,"vot":1758,"yF":1759,"zg":1760,"|}{":1761,"|}-\\":1762,"|},":1763,"}.":1764,"}]}":1765,"pivot":1766,"ĠxB":1767,"Ġ((":1768,"Ġ-(\\":1769,")}[":1770,")})+\\":1771,")}{-\\":1772,"}}}-\\":1773,"}}~\\":1774,"Ġtwo":1775,"]{{":1776,"Ġdtds":1777,"Ġ{(\\":1778,"bfg":1779,"gen":1780,")-(-":1781,"dtds":1782,"!}-":1783,"}-(\\":1784,"ĠFib":1785,"textstyle":1786,"con":1787,"))}}\\":1788,"}+...+":1789,"dydx":1790,"...+\\":1791,"Ġ72":1792,"ate":1793,"Ġ...\\":1794,"ĠRes":1795,"}))+":1796,"}=(-":1797,"trix":1798,"180":1799,"135":1800,"})^{(-":1801,"real":1802,"ceil":1803,"4096":1804,"Ġ}}{{\\":1805,"ometric":1806,"ewton":1807,"ourier":1808,"perbolic":1809,"!,":1810,"'\\!\\":1811,")'":1812,")|\\":1813,"+...+":1814,"-|\\":1815,"1105":1816,"42":1817,"51":1818,"67":1819,"625":1820,"71828":1821,"864":1822,"91":1823,"RC":1824,"[{":1825,"ci":1826,"com":1827,"dV":1828,"fx":1829,"fic":1830,"iw":1831,"jm":1832,"pn":1833,"qy":1834,"rz":1835,"ss":1836,"sta":1837,"tic":1838,"wer":1839,"xB":1840,"||\\":1841,"}*":1842,"âĨ":1843,"Ġsum":1844,"ĠĠĊ":1845,"Ġ\\:":1846,"rangle":1847,"yste":1848,"ĠxJ":1849,")}{[":1850,"}})}":1851,"}})}{":1852,"{((":1853,")))^{\\":1854,"))))}{\\":1855,"))/(":1856,"Ġkf":1857,"Ġkn":1858,")!]":1859,")!^{-":1860,"}(|":1861,"Ġter":1862,"Ġ17":1863,"ary":1864,"}}{{":1865,",\\;":1866,"Ġie":1867,"Ġix":1868,"Ġ35":1869,"ĠBC":1870,"Ġsy":1871,"Ġsign":1872,"Ġcur":1873,")]+":1874,"))}=\\":1875,")|+":1876,")|)}{\\":1877,"279":1878,"'',":1879,"}))-":1880,"}))}\\":1881,"Ġ[-":1882,"]^{(-":1883,"}=(":1884,"ined":1885,"anh":1886,"ant":1887,"^-}(":1888,"197":1889,"Ġ100":1890,";\\;":1891,"sian":1892,"|<|":1893,"underline":1894,"cdh":1895,"ient":1896,"effic":1897,"|+|\\":1898,"artanh":1899,"Ġmatrix":1900,"Longleftrightarrow":1901,"verse":1902,"volution":1903,"erminant":1904,"aussian":1905,"subseteq":1906,"âĨĴ":1907,"ystem":1908,"efficient":1909,"!})":1910,"'}\\":1911,"'}^":1912,"399":1913,"720":1914,"764":1915,"Beta":1916,"Ce":1917,"Newton":1918,"TA":1919,"[^":1920,"bm":1921,"ch":1922,"cil":1923,"div":1924,"iab":1925,"jB":1926,"pp":1927,"sf":1928,"sr":1929,"stack":1930,"urs":1931,"ulli":1932,"vy":1933,"xg":1934,"zh":1935,"{[\\":1936,"|^\\":1937,"|}}\\":1938,"Ġra":1939,"Ġdis":1940,"Ġos":1941,"ĠGamma":1942,"Ġ}}}":1943,"Ġare":1944,"inary":1945,"leng":1946,"}{}{":1947,"}{[\\":1948,"langle":1949,"ists":1950,"sing":1951,"osition":1952,")\\|":1953,"Ġ-|":1954,")}}}\\":1955,")}},":1956,")}=-\\":1957,"Ġeve":1958,"}}~":1959,"))]^":1960,")))}+\\":1961,"Ġkh":1962,"Ġkt":1963,"Ġku":1964,")!)":1965,"Ġts":1966,"root":1967,"})_\\":1968,"Ġzq":1969,"Ġ25":1970,"exists":1971,"}}{|\\":1972,"101":1973,"erno":1974,"ect":1975,"ector":1976,"ecurs":1977,"Ġusing":1978,"Ġch":1979,"Ġcy":1980,"Ġhy":1981,"esen":1982,")]]":1983,")]_{":1984,")]+\\":1985,"))})":1986,"))}}{":1987,"Ġrdr":1988,"})}}{":1989,"}+(-":1990,"}+...+\\":1991,"]^*":1992,")|)}":1993,")|}{|":1994,"Ġ60":1995,"Ġ\\;\\":1996,"\\}*":1997,"ond":1998,"''[":1999,"}))=":2000,"}))_":2001,"5028":2002,"dsdt":2003,"undef":2004,"ikR":2005,"Ġ128":2006,"Ġ~{}_":2007,")*\\":2008,")_+^\\":2009,"84197":2010,"}~(":2011,"ĠaeF":2012,"'}|}":2013,"presen":2014,"Ġbdi":2015,"Ġbdfg":2016,"env":2017,"Ġcoefficient":2018,"eriod":2019,"Ġdifferential":2020,"169399":2021,"cosech":2022,"}\\!\\!\\!\\":2023,"Ġrepresen":2024,"Ġterms":2025,"2795028":2026,"cilla":2027,"iable":2028,"stackrel":2029,"Ġoscilla":2030,"ernoulli":2031,"undefined":2032,"84197169399":2033,"Ġrepresentation":2034,"279502884197169399":2035,"279502884197169399375":2036,"!)\\":2037,"!)^{":2038,"!)^{\\":2039,"!/(":2040,"()":2041,",+\\":2042,".}":2043,"02":2044,"216":2045,"320":2046,"984":2047,":\\":2048,"=,":2049,"Ge":2050,"NN":2051,"\\|^":2052,"\\|_":2053,"]}-\\":2054,"]}+\\":2055,"br":2056,"dd":2057,"do":2058,"gu":2059,"izt":2060,"jd":2061,"js":2062,"kc":2063,"lt":2064,"lus":2065,"rn":2066,"son":2067,"Ġ}^\\":2068,"Ġlong":2069,"}{[(":2070,"}\\!":2071,"}\\}":2072,")^*":2073,"Ġxu":2074,"tal":2075,"Ġ+\\":2076,"mation":2077,")})}{":2078,")}}}{":2079,")}{(-":2080,"}}}^{":2081,"Ġyx":2082,"Ġfg":2083,"))'":2084,")))+":2085,")))))":2086,")!_":2087,"^{\\,":2088,"binomial":2089,"Ġtr":2090,"})/\\":2091,"Ġ{[":2092,"Ġ13":2093,"Ġze":2094,"Ġaz":2095,"Ġabc":2096,"Ġafg":2097,"lor":2098,")-(\\":2099,"Ġbxy":2100,"}-|":2101,")+(-":2102,"ĠBy":2103,"ĠAi":2104,"Ġspace":2105,"Ġsystem":2106,"Ġperiod":2107,")!}{((":2108,"ĠjX":2109,"Ġ50":2110,"))\\,\\":2111,")!!}}":2112,")|<":2113,"ĠLa":2114,"{-(":2115,"Ġ...}":2116,"onac":2117,"'')":2118,"''+":2119,"}))))":2120,"Ġ80":2121,"Ġodd":2122,"};-\\":2123,"]_{|":2124,"Ġ96":2125,"147":2126,"196":2127,"}]}{\\":2128,"Ġ~~~~\\":2129,"rent":2130,"derivative":2131,"ifie":2132,"}))}}}":2133,"odifie":2134,"3383":2135,"265":2136,"Ġsine":2137,")!\\,(":2138,"}^*(":2139,"Ġdifference":2140,"ACB":2141,")...(":2142,")...\\":2143,"Laplace":2144,"sCR":2145,"Ġdeterminant":2146,"Ġexponential":2147,"star":2148,"ecursive":2149,"onacci":2150,"odified":2151,"3383279502884197169399375":2152,"!/":2153,"'+":2154,"'=":2155,"')}":2156,"'}(":2157,"076":2158,"315":2159,"568":2160,"85":2161,"854":2162,"945":2163,";;\\;":2164,"<|":2165,"=:":2166,"BC":2167,"DE":2168,"GCD":2169,"Gaussian":2170,"LC":2171,"Modified":2172,"\\!":2173,"\\}^{":2174,"]_{-\\":2175,"bxt":2176,"bmod":2177,"ca":2178,"ceg":2179,"cre":2180,"dW":2181,"ddot":2182,"gf":2183,"gcd":2184,"hx":2185,"iq":2186,"ies":2187,"je":2188,"kF":2189,"lj":2190,"mc":2191,"mf":2192,"mon":2193,"nC":2194,"ower":2195,"pk":2196,"position":2197,"qh":2198,"rh":2199,"rj":2200,"tB":2201,"ter":2202,"trace":2203,"uct":2204,"wx":2205,"xk":2206,"xxt":2207,"yD":2208,"zi":2209,"zs":2210,"|)}\\":2211,"|})\\":2212,"}^{-\\":2213,"}/\\":2214,"}]^":2215,"}')":2216,"}|}\\":2217,"~_":2218,"Ġty":2219,"Ġal":2220,"Ġ}^{\\":2221,"Ġlog":2222,"Ġoperator":2223,"Ġcot":2224,"inverse":2225,"ratic":2226,"land":2227,"(\\;;\\;":2228,"}\\\\":2229,")^-\\":2230,"^{-|\\":2231,"ĠxI":2232,")\\\\":2233,"}^{}":2234,"Ġ-{":2235,"ĠdF":2236,"Ġdef":2237,")}]":2238,")}}(":2239,")})}\\":2240,")})}}{":2241,")}{[(":2242,"amp":2243,"liminf":2244,"}}})":2245,"}}}{(":2246,"}}|\\":2247,"Ġfil":2248,")))^{":2249,"))))+\\":2250,")))}-":2251,")))}{(\\":2252,")!(\\":2253,"ĠtB":2254,"Ġ{{\\":2255,"Ġ120":2256,"Ġzx":2257,"arsinh":2258,"armon":2259,"ĠaJ":2260,"Ġaf":2261,"Ġany":2262,"Ġafh":2263,"product":2264,")}\\!\\!\\":2265,")^{|":2266,"arccosh":2267,",\\{":2268,"Ġif":2269,"ĠDt":2270,"erre":2271,")!}=":2272,"},-":2273,"},~\\":2274,"eral":2275,"ĠBu":2276,"Ġuv":2277,"bigcup":2278,"ĠhA":2279,"),(":2280,"overbrace":2281,")=|":2282,"))}+":2283,"))}}{\\":2284,"Ġ54":2285,"Ġ56":2286,"Ġreg":2287,"})}-":2288,")!!^":2289,"162":2290,"ormal":2291,")|)\\":2292,")|}}+\\":2293,")|}{|\\":2294,"ĠLi":2295,"Ġ768":2296,"\\{[":2297,"}}}=":2298,"Ġ...)":2299,"]}=":2300,"\\},\\":2301,"2022":2302,"5040":2303,")}}{(\\":2304,"^+)":2305,"trib":2306,"159":2307,"148":2308,"ives":2309,"997":2310,"^*_":2311,"side":2312,"689":2313,"}||_":2314,"300":2315,"}',\\":2316,"405":2317,"Ġdudvdw":2318,")~_":2319,"\\!\\!\\!\\!":2320,"001":2321,"Ġ180":2322,"ivatives":2323,"Ġcdg":2324,"795":2325,"Ġderivatives":2326,"ransfer":2327,"BesselJ":2328,"body":2329,"aei":2330,"Ġnumbers":2331,"uble":2332,"ubic":2333,")))))))))":2334,"Ġsecond":2335,"Ġdenotes":2336,"57721569":2337,"718281828":2338,"Ġdistrib":2339,"Ġeven":2340,"ĠaeFi":2341,"Ġoscillator":2342,"guerre":2343,"ĠLaplace":2344,"crete":2345,"Ġfilter":2346,"Ġdistribution":2347,"!)(":2348,"!}(-":2349,"!~\\":2350,"&\\":2351,"'+\\":2352,"'},":2353,"')\\,":2354,"'\\,":2355,"'})}{|\\":2356,"((\\":2357,"+{":2358,"+|\\":2359,",:":2360,"-{\\":2361,".,":2362,"04":2363,"048":2364,"150":2365,"3125":2366,"66":2367,"70":2368,"896":2369,"875":2370,"927":2371,":=\\":2372,"=?":2373,"AD":2374,"Cx":2375,"Com":2376,"Cau":2377,"Dix":2378,"Fourier":2379,"Her":2380,"Hess":2381,"Mn":2382,"Pf":2383,"Pr":2384,"Si":2385,"Var":2386,"\\}(\\":2387,"].":2388,"]}^":2389,"]}}{":2390,"],\\":2391,"]}(-":2392,"_+":2393,"axy":2394,"cc":2395,"cq":2396,"chy":2397,"dB":2398,"gra":2399,"ginary":2400,"ip":2401,"iut":2402,"jy":2403,"jmath":2404,"kf":2405,"lk":2406,"lceil":2407,"mq":2408,"mr":2409,"mite":2410,"nL":2411,"nit":2412,"ox":2413,"py":2414,"qz":2415,"rr":2416,"ru":2417,"rceil":2418,"sL":2419,"tA":2420,"tds":2421,"yw":2422,"zk":2423,"{[-":2424,"|^{-\\":2425,"|)}}":2426,"|)+\\":2427,"|-|":2428,"}_\\":2429,"})!(":2430,"}~~":2431,"}|_{":2432,"}*\\":2433,"Ġpi":2434,"Ġsinh":2435,"Ġpartial":2436,"Ġ,\\":2437,"Ġarg":2438,"Ġgen":2439,"Ġroot":2440,"inite":2441,"ration":2442,"igon":2443,"Ġxq":2444,")\\!":2445,"Ġdi":2446,"maginary":2447,")}})":2448,")})\\,":2449,"imple":2450,"alu":2451,"alcu":2452,"}})^":2453,"}}}+":2454,"}})^\\":2455,"Ġfx":2456,")))=\\":2457,")))^\\":2458,"))))}\\":2459,")!}-\\":2460,"Ġtime":2461,"Ġnz":2462,"})|^":2463,"}))}-":2464,"})-(":2465,"}(\\{":2466,"Ġ19":2467,"Ġzy":2468,"Ġ216":2469,"arith":2470,"ariable":2471,"Ġap":2472,"Ġat":2473,"dent":2474,"dehat":2475,"xyy":2476,"quadratic":2477,"arcsinh":2478,"ĠiQ":2479,"Ġixy":2480,"Ġident":2481,"abq":2482,"Ġbq":2483,"104":2484,"Ġ384":2485,"(-|\\":2486,"ĠFourier":2487,"mbox":2488,"121":2489,"Ġunit":2490,"Ġqx":2491,")^{-(\\":2492,")^{\\!\\!":2493,"Ġct":2494,"Ġcu":2495,"Ġhf":2496,"Ġhx":2497,"Ġharmon":2498,")}})\\":2499,"Ġ40":2500,"Ġ48":2501,"Ġ49":2502,"Ġpower":2503,"})\\,\\":2504,")])":2505,"Ġjx":2506,"))}}}":2507,")!}{(\\":2508,"Ġrs":2509,"Ġrx":2510,"Ġres":2511,"Ġrule":2512,"})}}\\":2513,"})}}{\\":2514,"Ġmn":2515,"}+|":2516,")!!}{\\":2517,")|}{\\":2518,"^{(-\\":2519,"...}":2520,"Ġvy":2521,"Ġ||\\":2522,")/[":2523,")/(\\":2524,"\\!\\!\\!":2525,"2020":2526,"646":2527,"649":2528,"Ġout":2529,"321":2530,"ized":2531,"^-)":2532,"Ġ1024":2533,"}]}\\":2534,"}|}}":2535,"!\\!\\!\\":2536,"360":2537,"Ġ~~~\\":2538,"759":2539,"formation":2540,"ree":2541,"uvw":2542,"}')\\":2543,"ĠODE":2544,"),\\;":2545,"{{{":2546,"400":2547,"Ġcomposition":2548,"Ġbfh":2549,"aylor":2550,"erical":2551,"|,|":2552,"perp":2553,"widehat":2554,"|>\\":2555,"Ġ144":2556,"Laguerre":2557,"definition":2558,"Longrightarrow":2559,"cyc":2560,"rdrd":2561,"Ġceh":2562,"5772156":2563,"ĠFibonacci":2564,"Ġcurve":2565,"double":2566,"Ġperiodic":2567,"Ġall":2568,"Cauchy":2569,"Dixon":2570,"Hermite":2571,"grad":2572,"Ġgeneral":2573,"igonometric":2574,"alculus":2575,"arithm":2576,"ariables":2577,"!}}{":2578,"!)-":2579,"!)!}":2580,"!)}{(":2581,"'^{":2582,"')}{":2583,"({(\\":2584,")&\\":2585,"*(":2586,"*}\\":2587,"*^{-":2588,"+{\\":2589,"+}^{\\":2590,",~":2591,"-~\\":2592,"08":2593,"132":2594,"212":2595,"218":2596,"225":2597,"396":2598,"349":2599,"3147":2600,"41":2601,"427":2602,"432":2603,"518":2604,"584":2605,"627":2606,"650":2607,"736":2608,"784":2609,"859":2610,"8576":2611,"93":2612,"94":2613,"954":2614,";\\,":2615,"={":2616,"Binom":2617,"Bernoulli":2618,"Con":2619,"Cay":2620,"DF":2621,"Dis":2622,"EF":2623,"ER":2624,"Ex":2625,"GL":2626,"Ham":2627,"In":2628,"Lo":2629,"Np":2630,"PV":2631,"Per":2632,"RT":2633,"Taylor":2634,"VC":2635,"Vector":2636,"\\},":2637,"\\|_{":2638,"]!":2639,"])}":2640,"]_{\\":2641,"]^{-\\":2642,"]=-\\":2643,"]}+":2644,"]/\\":2645,"]-(":2646,"af":2647,"av":2648,"atanh":2649,"afh":2650,"ble":2651,"dle":2652,"eger":2653,"fi":2654,"gc":2655,"gd":2656,"gg":2657,"gle":2658,"hq":2659,"har":2660,"io":2661,"ics":2662,"jr":2663,"jik":2664,"kB":2665,"kR":2666,"kd":2667,"kp":2668,"kv":2669,"ll":2670,"mi":2671,"mz":2672,"mem":2673,"nB":2674,"nF":2675,"nj":2676,"normal":2677,"ois":2678,"olta":2679,"otation":2680,"pb":2681,"point":2682,"put":2683,"qs":2684,"rF":2685,"rk":2686,"ric":2687,"sb":2688,"sj":2689,"tD":2690,"tn":2691,"tdz":2692,"ting":2693,"vw":2694,"vx":2695,"ws":2696,"wxy":2697,"wed":2698,"xh":2699,"xn":2700,"xrightarrow":2701,"yj":2702,"yperbolic":2703,"zF":2704,"zu":2705,"{}_{":2706,"{}{}{":2707,"|)}{\\":2708,"|_{\\":2709,"|),":2710,"|}}{\\":2711,"|))}\\":2712,"|}{|":2713,"}>":2714,"})!":2715,"}[(":2716,"}]_":2717,"}:\\":2718,"Ġ&":2719,"Ġ]":2720,"Ġ^{":2721,"Ġig":2722,"Ġ^{-":2723,"Ġ}^":2724,"Ġpa":2725,"Ġpart":2726,"Ġ}{(":2727,"Ġgamma":2728,"Ġmu":2729,"Ġbinomial":2730,"Ġ\\{\\":2731,"Ġ\\{(":2732,"inx":2733,"ley":2734,"}{}_{":2735,"ray":2736,"_{{\\":2737,"(\\!":2738,"(\\!\\":2739,"}\\|^":2740,")^(-":2741,"Ġxg":2742,"Ġxdx":2743,"Ġxst":2744,"rties":2745,"Ġ(|\\":2746,")\\}(\\":2747,"}^{|":2748,"}^{{\\":2749,"ĠdB":2750,"ĠdW":2751,"Ġdq":2752,"Ġdeg":2753,"mann":2754,")};":2755,")}_{":2756,")})^{":2757,")}(-":2758,")})+":2759,")})^{-":2760,")}/\\":2761,")})/":2762,")})}}{\\":2763,"ample":2764,"alleng":2765,"}})+\\":2766,"Ġyi":2767,"Ġyu":2768,"Ġfind":2769,"{(|":2770,"))|":2771,"))_{":2772,")),\\":2773,"))))^":2774,"))))-\\":2775,"))|}":2776,"))))=":2777,"))|}\\":2778,")!]^":2779,")!!\\,":2780,"}([":2781,"Ġ\\,_":2782,"Ġtx":2783,"Ġtimes":2784,"dxf":2785,"Ġna":2786,"Ġnth":2787,"Ġnotation":2788,"]{-\\":2789,"]{...":2790,"pherical":2791,"}),\\":2792,"}))\\,":2793,"})^{-(":2794,"})}\\,":2795,"})~\\":2796,"})]_{":2797,"Ġ{{{\\":2798,"Ġ192":2799,"Ġ26":2800,"Ġ256":2801,"array":2802,"Ġas":2803,"Ġace":2804,"}}{[":2805,"deg":2806,"xye":2807,"Ġiv":2808,"Ġimaginary":2809,"abk":2810,"abx":2811,"ĠDe":2812,"!}+":2813,"!}}\\":2814,"!}=\\":2815,"determin":2816,"ĠbJ":2817,"_{\\!":2818,"Ġ34":2819,"Ġ39":2820,")+(\\":2821,")+...":2822,"ĠBi":2823,"ĠBCD":2824,"ĠBernoulli":2825,"ĠBEF":2826,"xtt":2827,"Ġqe":2828,"ĠAX":2829,"ĠsT":2830,"Ġsx":2831,"Ġsequ":2832,"bigcap":2833,"Ġcf":2834,"Ġcs":2835,"Ġcalculus":2836,"overset":2837,"Ġ480":2838,")={\\":2839,"}}{(-":2840,"ĠSER":2841,"Ġ},\\":2842,")]^{-":2843,")]\\,":2844,")]](":2845,"))}(\\":2846,"Ġ576":2847,"})}+":2848,"})},":2849,"})}^":2850,"})})\\":2851,"Ġmo":2852,"^{-((":2853,"160":2854,"}_*^{-":2855,")|,":2856,"...\\":2857,"Ġvt":2858,"Ġvariables":2859,"Ġvolta":2860,")}(-\\":2861,"Ġ||":2862,"Ġ75":2863,"Ġ720":2864,"Ġ729":2865,"270":2866,"))}{[":2867,"]\\\\":2868,"]\\}":2869,"\\}=":2870,"\\}_{":2871,"''',":2872,"}))(":2873,"}))^{":2874,"}))^{-":2875,"xyzw":2876,"201":2877,"643383279502884197169399375":2878,")}}{{\\":2879,"}}(|\\":2880,"Ġ89":2881,"189":2882,"~~~~\\":2883,"angle":2884,"32384":2885,"};-":2886,"))=:":2887,"))=(-":2888,"ikj":2889,"nter":2890,"14159":2891,"xzw":2892,"Ġ105":2893,"Ġ108":2894,"^*[":2895,"^*}":2896,"^*}\\":2897,";\\;\\":2898,"ilton":2899,"687":2900,"))^{(-":2901,"}/[":2902,"}]}(-":2903,"}|/":2904,"}|^{":2905,")))}}-\\":2906,"))))]":2907,"4590":2908,"2008":2909,"960":2910,"ular":2911,"ref":2912,"reen":2913,"483":2914,"plic":2915,"Ġxyzw":2916,"center":2917,")_+^{\\":2918,"}'|}}{":2919,"359":2920,"3589":2921,"769":2922,"Ġbdf":2923,"pqrs":2924,"Ġinver":2925,"Ġinvol":2926,"789":2927,"Ġcon":2928,"Ġequations":2929,"setpoint":2930,"Ġinteger":2931,"Ġintric":2932,"Ġcdfg":2933,"ings":2934,"294":2935,"tional":2936,"iemann":2937,"middle":2938,"693147":2939,"7932384":2940,")]|_{(":2941,"'''''":2942,"abcde":2943,"974":2944,"BAC":2945,"|>|":2946,"longrightarrow":2947,"891":2948,"894":2949,"}^*(\\":2950,"}\\!\\!\\!":2951,"Ġmapp":2952,"Ġcegd":2953,"Ġbefg":2954,"))))}))))":2955,"Ġdenoting":2956,"62643383279502884197169399375":2957,"Ġ_{{":2958,"Ġprope":2959,"Ġ288":2960,"Ġexponent":2961,"genfrac":2962,"const":2963,"convolution":2964,"complex":2965,"Ġsignal":2966,"Ġcurrent":2967,"length":2968,"Ġchalleng":2969,"Ġtrigonometric":2970,"2653589":2971,"Ġdefinition":2972,"ampl":2973,"7182818284590":2974,"0489":2975,"Complex":2976,"Ġidentity":2977,"Ġresp":2978,"ĠODEs":2979,"Ġgeneralized":2980,"Binomial":2981,"Convolution":2982,"Cayley":2983,"DFT":2984,"Discrete":2985,"Hamilton":2986,"oisson":2987,"wedge":2988,"Ġdegree":2989,"Ġaceh":2990,"determinate":2991,"Ġsequen":2992,"Ġvoltage":2993,"Ġinvers":2994,"Ġintricate":2995,"793238462643383279502884197169399375":2996,"Ġmappings":2997,"Ġproperties":2998,"Ġchallenging":2999,"2653589793238462643383279502884197169399375":3000,"265358979323846264338327950288419716939937510":3001,"!+":3002,"!-":3003,"!+\\":3004,"!)}{\\":3005,"!(-":3006,"!}\\,":3007,"!}}}":3008,"!}{(-":3009,"!}},":3010,"!/[":3011,"'_{":3012,"')}{\\":3013,"')(":3014,"')}{|\\":3015,"({-":3016,"+}(":3017,"-)":3018,"-}":3019,"/(\\":3020,"/[(":3021,"2104":3022,"317":3023,"415":3024,"428":3025,"469":3026,"536":3027,"578":3028,"534":3029,"539":3030,"61":3031,"71":3032,"750":3033,"876":3034,"8756":3035,"968":3036,"972":3037,"975":3038,"976":3039,"938":3040,":|":3041,"={\\":3042,"AM":3043,"As":3044,"BT":3045,"Co":3046,"Cy":3047,"Cubic":3048,"EX":3049,"EY":3050,"FG":3051,"Fib":3052,"GC":3053,"HD":3054,"Hyperbolic":3055,"Ra":3056,"Simple":3057,"Vf":3058,"XF":3059,"\\}}{":3060,"\\|\\":3061,"\\}}{\\":3062,"\\}}}":3063,"]*":3064,"]]":3065,"])\\":3066,"]),":3067,"aP":3068,"ag":3069,"atan":3070,"afg":3071,"bq":3072,"but":3073,"bgd":3074,"cT":3075,"db":3076,"dh":3077,"dl":3078,"dq":3079,"dinary":3080,"ez":3081,"ential":3082,"fG":3083,"ff":3084,"finite":3085,"hB":3086,"hen":3087,"iG":3088,"iI":3089,"iK":3090,"iP":3091,"iY":3092,"ia":3093,"ixy":3094,"idt":3095,"ibx":3096,"jh":3097,"jn":3098,"ku":3099,"kw":3100,"kdx":3101,"kdt":3102,"kel":3103,"lh":3104,"ls":3105,"ly":3106,"ml":3107,"nc":3108,"ndt":3109,"niz":3110,"nzq":3111,"rJ":3112,"ry":3113,"ression":3114,"recursive":3115,"sH":3116,"sT":3117,"sn":3118,"tive":3119,"transfer":3120,"ug":3121,"up":3122,"uw":3123,"uy":3124,"uz":3125,"ude":3126,"urent":3127,"vr":3128,"vdots":3129,"wy":3130,"wart":3131,"when":3132,"xA":3133,"xI":3134,"xv":3135,"yg":3136,"ymp":3137,"zI":3138,"zdz":3139,"{_":3140,"|_{-\\":3141,"|,\\":3142,"|}-":3143,"|)-\\":3144,"|}\\,":3145,"|)))":3146,"|})}{":3147,"|}}=":3148,"|}{|\\":3149,"|})}-\\":3150,"})!}":3151,"}]\\":3152,"}](":3153,"})}}+\\":3154,"}~~~":3155,"~(":3156,"Ġ!":3157,"Ġle":3158,"Ġrt":3159,"Ġsu":3160,"Ġ)}{":3161,"Ġth":3162,"Ġim":3163,"Ġtan":3164,"Ġ!}":3165,"Ġlimit":3166,"Ġ}}\\":3167,"Ġ]^\\":3168,"Ġproduct":3169,"Ġquadratic":3170,"Ġ\\|\\":3171,"}{{\\":3172,"}{{(-":3173,"}{}_":3174,"rame":3175,"Ġ=}":3176,"law":3177,"lation":3178,"ise":3179,"}\\{\\":3180,"}\\;\\":3181,"leftarrow":3182,"sine":3183,"integ":3184,"ĠxA":3185,"ĠxF":3186,"ĠxK":3187,"ĠxW":3188,"Ġxi":3189,")\\;\\":3190,")\\\\|":3191,"ĠdX":3192,"ĠdY":3193,"Ġdh":3194,"Ġdm":3195,")}^{-":3196,")}))=":3197,")}+(":3198,")}*\\":3199,")}{[\\":3200,"otential":3201,"}}_":3202,"}}}}{":3203,"}}}-":3204,"}}}}\\":3205,"}}}+\\":3206,"}}}}}":3207,"}}}{(\\":3208,"Ġfn":3209,"))!":3210,")))}}":3211,")))]":3212,"))}\\,":3213,"))~\\":3214,")))|_{":3215,"))|)":3216,"Ġkj":3217,"Ġkz":3218,")!}(-":3219,"Ġtdt":3220,"Ġtrans":3221,"dxds":3222,"Ġnk":3223,"]{}":3224,"phson":3225,"ror":3226,"}))^\\":3227,"})|_{":3228,"})|_":3229,"Ġdtdx":3230,"Ġ{}":3231,"Ġ{}^{-":3232,"Ġ168":3233,"Ġ135":3234,"Ġ191":3235,"Ġzeta":3236,"proxi":3237,"lower":3238,")}\\\\":3239,"}}{|":3240,")^{[":3241,"rgeometric":3242,"xyzt":3243,",\\;\\;":3244,"ĠiK":3245,"Ġid":3246,"abi":3247,"ĠDy":3248,"!}=":3249,"itude":3250,"Ġbg":3251,"Ġbz":3252,"=\\{(":3253,"107":3254,"Ġ38":3255,"ĠFunction":3256,"egf":3257,"Ġgrow":3258,")!}~":3259,")!}=\\":3260,"textup":3261,"},~":3262,"ĠBA":3263,"ĠCD":3264,"ĠCx":3265,"127":3266,"1279":3267,"Ġut":3268,"Ġuse":3269,"Ġqy":3270,"ĠsL":3271,"Det":3272,"Ġcirc":3273,"Ġcef":3274,"Ġcubic":3275,"ĠPF":3276,"ĠPV":3277,")}}~":3278,")}})}":3279,"Ġ44":3280,"Ġ45":3281,"Ġpq":3282,"Ġpos":3283,"Ġpotential":3284,")]^{":3285,"))},":3286,"))}^":3287,"))}-(":3288,"Ġ512":3289,"Ġ568":3290,"Ġrecursive":3291,"}+(\\":3292,"}+|\\":3293,")!!/(":3294,"167":3295,"16384":3296,"order":3297,"10000":3298,")|)^":3299,")|^{-":3300,")|)}{":3301,")|}}{":3302,"}\\,(":3303,"ĠGaussian":3304,"...(":3305,"Ġvu":3306,"Ġvector":3307,"Ġvalu":3308,"ĠLe":3309,"Ġ70":3310,"ated":3311,"))}{(-":3312,"))}{|\\":3313,"\\{|":3314,"Ġ...}{":3315,"ĠRC":3316,"ĠRiemann":3317,"]}|":3318,"\\}>":3319,"\\}*\\":3320,"ijkr":3321,"ijkl":3322,"})}{|":3323,"''-":3324,"''\\":3325,"''')":3326,"}))/":3327,"Ġ[-\\":3328,"11568":3329,"\\!\\!\\":3330,"2016":3331,"2021":3332,"2078":3333,"5000":3334,")}}{|":3335,"ĠEuler":3336,"]^{(\\":3337,"156":3338,"243383279502884197169399375":3339,"ankel":3340,"und":3341,"179":3342,"Ġ945":3343,"ikr":3344,"ikt":3345,"nti":3346,"^-}}":3347,"xzy":3348,"xzz":3349,"Ġtheir":3350,"]_+":3351,"^*)":3352,"^*(-":3353,"actor":3354,"Ġ~(":3355,"))^{(\\":3356,"]=(":3357,"Ġdvd":3358,"}]-":3359,"}]|_{":3360,"}||\\":3361,"728":3362,"ibniz":3363,"4826":3364,"ved":3365,"verge":3366,"}}-(-":3367,"Ġxyze":3368,")_+^{-":3369,"8427":3370,"Ġexample":3371,"Ġadfg":3372,"ĠaeI":3373,"Ġaeic":3374,"Ġaeif":3375,"asymp":3376,"54321":3377,"}'|^":3378,"}'|/":3379,"||_":3380,"}\\!\\!":3381,"4000":3382,"({-\\":3383,"Ġish":3384,"Ġinx":3385,"76811568":3386,"262":3387,"2625":3388,"7816":3389,"Ġcont":3390,"Ġcomplic":3391,"imension":3392,"ĠcdH":3393,"\\;(":3394,"hyperbolic":3395,"Ġbfdg":3396,"792":3397,"''''''":3398,"Ġtheory":3399,"Ġintegration":3400,"567":3401,"389":3402,"861":3403,"Ġintegrals":3404,"Ġordinary":3405,"39687":3406,"Ġdsdtdu":3407,"'''+":3408,"Ġdifferent":3409,"Laurent":3410,"Ġcosech":3411,"Ġbdgfi":3412,"pergeometric":3413,")'=\\":3414,"110514":3415,")|+|\\":3416,"Ġrate":3417,"Ġhyperbolic":3418,"lti":3419,"Ġlogarithm":3420,")}\\!\\!\\!":3421,"Ġregression":3422,"{[-(\\":3423,"Ġroots":3424,"Ġharmonic":3425,"5772156649":3426,"5184":3427,"Log":3428,"Ġfinding":3429,"Ġcsc":3430,"Ġmodu":3431,"14159265358979323846264338327950288419716939937510":3432,"69314715":3433,"Ġrespect":3434,"Ġsequence":3435,"210476811568":3436,"Raphson":3437,"rametric":3438,"Ġtransformation":3439,"Ġgrowth":3440,"12794826":3441,"Ġused":3442,"Ġvalue":3443,"Ġcomplicated":3444,"21047681156812794826":3445,"21047681156812794826243383279502884197169399375":3446,"!!":3447,"!]":3448,"!(\\":3449,"!}^{":3450,"!^\\":3451,"!!}":3452,"!))^":3453,"!]^":3454,"!)}+\\":3455,"!})^{(-":3456,"'/":3457,"'|":3458,"'^{-":3459,"'}}":3460,"'{(":3461,"'}^\\":3462,"'}(\\":3463,"'}{(":3464,"'}}\\":3465,"'_\\":3466,"'))^":3467,"'))}{":3468,"'})}{":3469,"')|}":3470,"')}{|":3471,"(^{":3472,"({\\":3473,"(+\\":3474,"((-\\":3475,")]{":3476,")'}":3477,"*=":3478,"*(-":3479,"+)":3480,"+[":3481,"+)+":3482,"+...":3483,"+}^{-":3484,"+~\\":3485,"+}^{(-":3486,",(":3487,",~~~~\\":3488,"-)}{":3489,"-...":3490,".(":3491,"03":3492,"014":3493,"047":3494,"112":3495,"1104":3496,"298":3497,"2148":3498,"350":3499,"324":3500,"381":3501,"314":3502,"372":3503,"44":3504,"464":3505,"450":3506,"440":3507,"439":3508,"465":3509,"437":3510,"4389":3511,"52":3512,"53":3513,"510":3514,"511":3515,"564":3516,"514":3517,"521":3518,"538":3519,"580":3520,"5349":3521,"620":3522,"618":3523,"632":3524,"617":3525,"681":3526,"619":3527,"636":3528,"696":3529,"675":3530,"600":3531,"657":3532,"679":3533,"656":3534,"6759":3535,"73":3536,"77":3537,"716":3538,"717":3539,"707":3540,"82":3541,"884":3542,"837":3543,"8179":3544,"928":3545,"957":3546,"9646":3547,":~":3548,";(":3549,"=(\\":3550,"={(":3551,"AR":3552,"Ad":3553,"Ap":3554,"Ar":3555,"Ack":3556,"Air":3557,"Anti":3558,"BE":3559,"BP":3560,"Be":3561,"Bs":3562,"Bu":3563,"Bin":3564,"Bess":3565,"CC":3566,"CS":3567,"Ct":3568,"Cos":3569,"DP":3570,"DQ":3571,"Du":3572,"Dar":3573,"EG":3574,"EI":3575,"Ef":3576,"Eh":3577,"Equation":3578,"FD":3579,"Fg":3580,"Frac":3581,"Gaus":3582,"Green":3583,"He":3584,"Hi":3585,"HÃ":3586,"JK":3587,"Jac":3588,"KT":3589,"LG":3590,"Lx":3591,"Ler":3592,"MN":3593,"Me":3594,"Mo":3595,"Mu":3596,"Nh":3597,"Nq":3598,"Nz":3599,"Pa":3600,"Ph":3601,"Pi":3602,"Poisson":3603,"PBP":3604,"Rad":3605,"Rec":3606,"SC":3607,"Sto":3608,"Sch":3609,"Spherical":3610,"TD":3611,"TL":3612,"TQ":3613,"Tc":3614,"Th":3615,"Ti":3616,"Ts":3617,"Transfer":3618,"Ve":3619,"Xi":3620,"Yf":3621,"[,":3622,"[]{":3623,"[|\\":3624,"[~_":3625,"\\{(":3626,"\\{(-":3627,"\\})\\":3628,"\\}_":3629,"\\}}(":3630,"\\}}+\\":3631,"\\|}":3632,"\\|=":3633,"\\})},":3634,"]/":3635,"]~":3636,"](\\":3637,"]})":3638,"]}{(":3639,"])}{\\":3640,"])(":3641,"])-":3642,"])_":3643,"])}{(":3644,"])=":3645,"]}}{(":3646,"])]":3647,"])+\\":3648,"]/(":3649,"]'_":3650,"^+\\":3651,"^...":3652,"_+}":3653,"_*(":3654,"_-}":3655,"aI":3656,"aJ":3657,"aa":3658,"ah":3659,"aw":3660,"ale":3661,"asu":3662,"asinh":3663,"acx":3664,"ave":3665,"aEi":3666,"ahe":3667,"bI":3668,"bu":3669,"bcos":3670,"beg":3671,"bax":3672,"bcx":3673,"bic":3674,"bni":3675,"bzq":3676,"cJ":3677,"cg":3678,"cr":3679,"cdx":3680,"cfg":3681,"cate":3682,"dF":3683,"dn":3684,"din":3685,"dom":3686,"dar":3687,"dih":3688,"eig":3689,"ens":3690,"end":3691,"eih":3692,"finition":3693,"factor":3694,"gi":3695,"gp":3696,"gy":3697,"gular":3698,"gEf":3699,"gHi":3700,"hX":3701,"hl":3702,"hp":3703,"hkt":3704,"hlk":3705,"iM":3706,"iN":3707,"iR":3708,"ila":3709,"icosh":3710,"iel":3711,"ian":3712,"iwt":3713,"jD":3714,"jT":3715,"ja":3716,"jb":3717,"jo":3718,"jp":3719,"jq":3720,"jt":3721,"jz":3722,"jct":3723,"ject":3724,"kG":3725,"kM":3726,"kX":3727,"kg":3728,"kxy":3729,"kes":3730,"kkx":3731,"lG":3732,"lM":3733,"lT":3734,"lb":3735,"lx":3736,"lmn":3737,"mQ":3738,"mh":3739,"mw":3740,"mvr":3741,"nD":3742,"nK":3743,"nl":3744,"nv":3745,"nth":3746,"nto":3747,"ndy":3748,"ndz":3749,"of":3750,"oth":3751,"odot":3752,"onu":3753,"ous":3754,"pto":3755,"pEi":3756,"poly":3757,"qD":3758,"qk":3759,"qn":3760,"qp":3761,"rd":3762,"rrow":3763,"rst":3764,"rect":3765,"sD":3766,"sX":3767,"sa":3768,"sm":3769,"sty":3770,"sla":3771,"sys":3772,"space":3773,"tI":3774,"tS":3775,"tl":3776,"tdx":3777,"txx":3778,"uL":3779,"urt":3780,"uto":3781,"upa":3782,"uit":3783,"uous":3784,"vn":3785,"vu":3786,"val":3787,"vdx":3788,"vpha":3789,"ving":3790,"wz":3791,"xG":3792,"xH":3793,"xc":3794,"xd":3795,"yd":3796,"yk":3797,"yr":3798,"yu":3799,"yv":3800,"yAi":3801,"zd":3802,"zbar":3803,"{}}":3804,"{{(":3805,"{)}_{":3806,"|{\\":3807,"|}(\\":3808,"|)(":3809,"|)-":3810,"|))}":3811,"|})^":3812,"|/\\":3813,"|))}{":3814,"|))+\\":3815,"|)}-\\":3816,"|}=":3817,"|})+\\":3818,"|}}}{\\":3819,"|)}{|\\":3820,"|}-(":3821,"|}))-":3822,"|)-(\\":3823,"|}+|\\":3824,"}!":3825,"})!}{(":3826,"}^{-(":3827,"}}^{+\\":3828,"})!\\":3829,"}]_{":3830,"}<\\":3831,"}>-":3832,"}!)^{":3833,"~(\\":3834,"´pi":3835,"Ġ)\\":3836,"Ġ}^{":3837,"Ġsq":3838,"Ġlim":3839,"Ġ^{\\":3840,"Ġtheta":3841,"Ġph":3842,"Ġ)}{\\":3843,"Ġmb":3844,"Ġ},":3845,"Ġ)\\,":3846,"Ġ)^{-":3847,"Ġ)+\\":3848,"Ġ}(-":3849,"Ġ)}-\\":3850,"Ġline":3851,"Ġ}{(\\":3852,"Ġ~\\":3853,"Ġ^{(-":3854,"Ġ)}}{{":3855,"Ġlength":3856,"Ġampl":3857,"Ġlaw":3858,"Ġ\\!":3859,"Ġ\\!\\!":3860,"inh":3861,"inj":3862,"inrel":3863,"inside":3864,"inuous":3865,"^{+\\":3866,"^{...":3867,"^{*}\\":3868,"lec":3869,"les":3870,"rable":3871,"_{,":3872,"_{(\\":3873,"_{(-":3874,"_{+}^{\\":3875,"(\\{\\":3876,"isu":3877,"iscate":3878,"isinh":3879,"igf":3880,"igec":3881,"}\\})":3882,"}\\},":3883,"}\\}_{":3884,"}\\|)":3885,"righthar":3886,")^+":3887,"{\\|":3888,"Ġxs":3889,"Ġxv":3890,"Ġxw":3891,"Ġxzw":3892,"osh":3893,"tat":3894,"Ġ({":3895,"Ġ((-":3896,")\\}\\":3897,")\\}_":3898,")\\}=\\":3899,")\\\\\\":3900,")\\!\\!\\":3901,")\\|_":3902,")\\|^{-":3903,")\\|}{\\":3904,")\\!\\!":3905,"Ġ+}":3906,"Ġ+(-":3907,"}^{(-\\":3908,"}^{[(":3909,"}^{*}\\":3910,"cost":3911,"Ġ-{\\":3912,"Ġ-[\\":3913,"Ġdn":3914,"Ġdo":3915,"Ġdimension":3916,"main":3917,"mating":3918,")}*":3919,")}.":3920,")}:":3921,")}^\\":3922,")})}{\\":3923,")})^{\\":3924,")})}}":3925,")}))}":3926,")}]^":3927,")}))\\":3928,")})}-":3929,")})}\\,":3930,")})}{(\\":3931,")}}}-\\":3932,")})}}+\\":3933,")}]=\\":3934,")}|-":3935,"}^!":3936,"}^+(":3937,"}^-(":3938,"}^+)":3939,"}^-)}{":3940,"Ġequ":3941,"Ġelec":3942,"amn":3943,"totic":3944,"total":3945,"tandar":3946,"}}.":3947,"}}))":3948,"}}}^\\":3949,"}},\\":3950,"}}_\\":3951,"}})+":3952,"}})\\,":3953,"}}),":3954,"}})-\\":3955,"}}/\\":3956,"}}|}":3957,"}}]_{":3958,"}}-(":3959,"}}}\\,\\":3960,"}})))}":3961,"}})(-":3962,"}}}}=\\":3963,"}}*\\":3964,"}}}}{{\\":3965,"}})^*":3966,"Ġdxdx":3967,"Ġdxdz":3968,"}^{\\;\\;\\":3969,"Ġyh":3970,"Ġyv":3971,"Ġyy":3972,"))~":3973,"))),":3974,"))^{-(":3975,")))|":3976,"))^{(":3977,"))))}{":3978,")))}}{":3979,")))}=":3980,")))))}":3981,")))](":3982,")))]^":3983,"))))^\\":3984,"))]-":3985,"))''''":3986,"))|-\\":3987,")))]=":3988,"))|+|\\":3989,"))_+":3990,"))*(-":3991,"ĠkC":3992,"ĠkP":3993,"ĠkY":3994,"Ġka":3995,"Ġkm":3996,"Ġkp":3997,"Ġkr":3998,")!})":3999,")!}\\,":4000,")!!\\,(":4001,")!/[(":4002,"}()":4003,"}([\\":4004,"}(|\\":4005,"pass":4006,"Ġ\\,\\,":4007,"Ġ\\,{}_":4008,"ĠtF":4009,"ĠtJ":4010,"Ġtcos":4011,"Ġtext":4012,"mathsf":4013,"ĠnB":4014,"ĠnP":4015,"Ġnb":4016,"Ġnf":4017,"Ġnh":4018,"Ġns":4019,"Ġnot":4020,"Ġnega":4021,"Ġnyx":4022,"Ġnormal":4023,"]{[":4024,"})'":4025,"})}^{":4026,"})[\\":4027,"})|\\":4028,"})=-\\":4029,"})]^":4030,"})|}":4031,"})]=\\":4032,"}))}}=":4033,"})|-\\":4034,"})||_":4035,"Ġ112":4036,"Ġ115":4037,"Ġ132":4038,"Ġ125":4039,"Ġ175":4040,"Ġ190":4041,"Ġ198":4042,"Ġ195":4043,"Ġzf":4044,"Ġzu":4045,"Ġzw":4046,"propto":4047,"Ġ248":4048,"Ġ262":4049,"bfd":4050,")(-\\":4051,"[\\,":4052,")}\\!":4053,")}\\;":4054,")}\\!\\":4055,"}}{-\\":4056,"}}{=\\":4057,")^{{":4058,")^{|\\":4059,"den":4060,"deformation":4061,"quen":4062,"xyt":4063,"xyw":4064,")-{\\":4065,"arcsec":4066,",\\,":4067,"ĠiY":4068,"Ġij":4069,"Ġir":4070,"ĠiBeta":4071,"abs":4072,"abce":4073,"abef":4074,"ĠDu":4075,"ĠDv":4076,"ĠDx":4077,"ĠDCD":4078,"!}~":4079,"!})}":4080,"!}}{\\":4081,"!}[-":4082,"!}=(-":4083,"determinant":4084,"itial":4085,"itive":4086,"ities":4087,"Ġbh":4088,"Ġbj":4089,"Ġbu":4090,"Ġbessel":4091,"Ġbef":4092,"=\\{":4093,"1095":4094,"_{\\{":4095,"_{\\|":4096,"number":4097,"eres":4098,"erivative":4099,"error":4100,"Ġ31":4101,"Ġ327":4102,"Ġ336":4103,"Ġ300":4104,"Ġ3875":4105,"(-{":4106,"(-(\\":4107,")!}=(":4108,"ecew":4109,"textnormal":4110,"!\\,\\":4111,"},...":4112,"ĠBin":4113,"ĠBeta":4114,"ĠCz":4115,"ĠCov":4116,"ĠCap":4117,"ĠChar":4118,"ĠCFG":4119,"ĠCosh":4120,"ĠIy":4121,"ĠIJK":4122,"mute":4123,"123":4124,"1219":4125,"1296":4126,"1234":4127,"Ġug":4128,"Ġuw":4129,"cov":4130,"ĠqD":4131,"Ġqz":4132,"Ġqabcd":4133,"ĠAC":4134,"ĠAM":4135,"ĠAEI":4136,"ĠAFD":4137,"Ġsh":4138,"Ġsol":4139,"Ġsome":4140,"Ġsimple":4141,"Ġspherical":4142,"Ġsampl":4143,")^{\\!\\":4144,")^{\\!\\!\\!\\":4145,"Definition":4146,"ĠcL":4147,"Ġcj":4148,"ĠcdA":4149,"Ġcub":4150,"ĠcgEf":4151,"Ġcabef":4152,"ĠhX":4153,"Ġhg":4154,"Ġhk":4155,"Ġhq":4156,"Ġhkl":4157,"ĠPe":4158,"ĠPoisson":4159,"ĠPAR":4160,"ĠPDP":4161,"),-":4162,"),:":4163,"),~~":4164,"),~\\":4165,"),~~~":4166,"Ġ42":4167,"Ġ46":4168,"Ġ425":4169,"Ġ439":4170,"Ġ487":4171,"Ġpy":4172,"Ġpxt":4173,"Ġpyt":4174,"Ġposition":4175,")==":4176,")=(-\\":4177,")=||":4178,"Ġ}}{\\":4179,"})\\}":4180,"})\\|\\":4181,"})\\;\\":4182,"})\\}]":4183,"})\\}]^":4184,")],":4185,")]_":4186,")])\\":4187,")]}}{(":4188,")]/\\":4189,"Ġjm":4190,"Ġjkn":4191,"))}}{(":4192,"))}(-":4193,"))})+\\":4194,"))}))-\\":4195,"))}}{|\\":4196,"Ġ540":4197,"Ġ546":4198,"Ġ583":4199,"Ġrz":4200,"Ġrst":4201,"})^*=":4202,"})}~":4203,"})}(\\":4204,"})})}":4205,"})}}\\,":4206,"})})}}\\":4207,"})}=-":4208,"})}}}=":4209,"ĠmB":4210,"ĠmS":4211,"Ġmi":4212,"Ġms":4213,"Ġmt":4214,"\\,(\\":4215,"\\,}\\":4216,"cse":4217,"Ġdzdydx":4218,"/\\!\\":4219,"]^*\\":4220,"))\\;\\":4221,")!!,":4222,")!!}(":4223,")!!}(\\":4224,")!!}(-":4225,")!!}{(\\":4226,"1617":4227,"1646":4228,"ork":4229,"ordin":4230,"stn":4231,"}_+":4232,"bxe":4233,")|-":4234,")|=":4235,")||":4236,")|^{":4237,")|}}":4238,")|})":4239,")|)^{\\":4240,")|)-\\":4241,")|/\\":4242,")|)^\\":4243,")|))}\\":4244,")|>\\":4245,"Ġwave":4246,"Ġwork":4247,"ĠGol":4248,"ĠGreen":4249,"nxe":4250,"Ġ62":4251,"Ġ68":4252,"Ġ69":4253,"Ġ616":4254,"Ġ625":4255,"Ġ600":4256,"Ġ68576":4257,"Ġvv":4258,"ĠLC":4259,"ĠLt":4260,")}(|":4261,"ĠHankel":4262,"Ġ|_{\\":4263,"Ġ78":4264,"Ġ79":4265,"Ġ700":4266,"!}{[":4267,"!}{{(":4268,"ates":4269,"atio":4270,"273":4271,"27521":4272,"bse":4273,"cksla":4274,"}}}.":4275,"}}}~\\":4276,")))~":4277,"]\\}\\":4278,"Ġ...}}}":4279,"Ġ...}}}}":4280,"ĠRatio":4281,"]}}^{":4282,"\\}]":4283,"\\}^{-\\":4284,"\\}|-":4285,"Ġdud":4286,"Ġdudt":4287,"variat":4288,"''}{":4289,"''_{":4290,"''(\\":4291,"'')^":4292,"''\\!\\":4293,"'''''(":4294,"dzd":4295,"dzdw":4296,")!\\,\\":4297,"}))(\\":4298,"})))\\":4299,"})))}{\\":4300,"})))+\\":4301,"})))}=\\":4302,"xyze":4303,"1185":4304,"ĠxyG":4305,"},\\;":4306,"},\\\\":4307,"202":4308,"643":4309,"6478":4310,"64756":4311,"6441":4312,"dsdy":4313,")}}{{{":4314,"^+,":4315,"^+}{\\":4316,"^+)=":4317,"iyi":4318,"Ġ85":4319,"Ġ840":4320,"}=+":4321,"}=[":4322,"158":4323,"1525":4324,"_{-}^{-\\":4325,"|})\\,":4326,"ely":4327,"246":4328,"2470":4329,"24769":4330,"mnyz":4331,"mniscate":4332,"})^{-(-":4333,"!}{((":4334,"Ġone":4335,"aning":4336,"|_{|\\":4337,"ĠTr":4338,"329":4339,"};\\,":4340,"))=-":4341,")!!},":4342,")!!}-(":4343,")!!}{((":4344,"Ġdxdyd":4345,")}=(":4346,")}=-":4347,")}=:":4348,")}=(-":4349,"dxdyd":4350,"izx":4351,"ization":4352,"izing":4353,"+(|":4354,"178":4355,"1735":4356,"1729":4357,"1769":4358,"17273":4359,"133":4360,"1395":4361,"Ġ90":4362,"Ġ901":4363,"xxxx":4364,"iky":4365,"ĠQDQ":4366,"nts":4367,"819":4368,"1428":4369,"1434":4370,"^-}{":4371,"^-}^":4372,"^-}{\\":4373,"198":4374,"199":4375,"1963":4376,"1983":4377,"19510":4378,"|=|":4379,"ĠVI":4380,"ĠVar":4381,"Ġlk":4382,"ivale":4383,"ively":4384,"9938":4385,"9980":4386,")},~~~":4387,")},~~\\":4388,"255":4389,"2559":4390,"2592":4391,"258179":4392,"251185":4393,"ĠZeta":4394,"ĠNewton":4395,"Ġ104":4396,"Ġ1080":4397,"lier":4398,"\\\\(":4399,"\\\\\\":4400,"vector":4401,"}})}^{":4402,"}})_\\":4403,"}})=-\\":4404,"^*,":4405,"^*\\":4406,"^*_{":4407,"^*_{\\":4408,"^*_\\":4409,"^*),":4410,")>\\":4411,"jkl":4412,"Ġ121":4413,"Ġ129":4414,"228":4415,"],[":4416,"],}":4417,"],~~~":4418,"argmax":4419,"ilk":4420,"Ġ~_":4421,"Ġ~|":4422,"))\\,|":4423,"682":4424,"683":4425,"6824":4426,"6875":4427,"6879":4428,"6827521":4429,"2304":4430,"}/{":4431,"}/[(":4432,"]=(-":4433,"}]=\\":4434,"}]|_":4435,"}|)":4436,"}|:":4437,"}|<":4438,"}|}{":4439,"}|)\\":4440,"}|)-":4441,"}|^{-(":4442,"}|))\\":4443,")))})+\\":4444,")))}))))":4445,"^{-|(":4446,"^{-||\\":4447,"Ġdwdu":4448,"))))))}{":4449,")))))))":4450,"451":4451,"45927":4452,"45536":4453,"2000":4454,"361":4455,"3628":4456,"967":4457,"9676":4458,"754":4459,"}}}{|\\":4460,"28128":4461,"28251185":4462,"requen":4463,"4838":4464,"48627":4465,"plied":4466,"vee":4467,"3072":4468,"3028251185":4469,"yyy":4470,"}},-\\":4471,")_+^{-\\":4472,")_{(":4473,"846":4474,"8467":4475,"}~_":4476,"}~}{":4477,"}~{\\":4478,"}~-~\\":4479,"}~+~\\":4480,"Ġaej":4481,"Ġaefg":4482,"ĠaefG":4483,"uvt":4484,"simila":4485,"546":4486,"5405":4487,"}))}}}{":4488,"}))}}}}":4489,"})=(":4490,"})=(\\":4491,"})=(-":4492,"})+(\\":4493,"}'|-":4494,"}'|)}{":4495,"),\\,":4496,"492":4497,"497":4498,"4932":4499,"Ġnxn":4500,"cubic":4501,"351":4502,"357":4503,"3517":4504,"35864":4505,"7659":4506,"76795":4507,"7654321":4508,"76716":4509,"762559":4510,"906":4511,"907":4512,"909":4513,"9072":4514,"9078":4515,"903125":4516,"azq":4517,"Ġdkdl":4518,"Ġ169":4519,"Ġ1620":4520,"Ġbdge":4521,"ĠbdGe":4522,"ĠbdFg":4523,"Ġbdigec":4524,"|<+\\":4525,"128212":4526,"plete":4527,"Leibniz":4528,"Ġinside":4529,"Ġinput":4530,"Ġindeterminate":4531,"Ġinitial":4532,"iven":4533,")~\\,":4534,")~-~\\":4535,"120584":4536,"))}}=\\":4537,"zwx":4538,"})}{(|":4539,"2630":4540,"Ġsinc":4541,"Ġsinus":4542,")})})\\":4543,")})})}":4544,")})}}}":4545,"):~":4546,")\\}]^":4547,"002":4548,"006":4549,"0047":4550,"00884":4551,"78125":4552,"7857":4553,"7886":4554,"7876795":4555,"}),(":4556,"Ġcommute":4557,"cdf":4558,"cdi":4559,"985":4560,"987":4561,"9897":4562,"98627":4563,"987654321":4564,"Ġinteres":4565,"Ġ152":4566,"Ġ156":4567,"Ġ182":4568,")|}*\\":4569,"})}})}}{":4570,"Ġcdhi":4571,"Ġcdih":4572,"(;-\\":4573,"\\;{":4574,"hyper":4575,"Ġ243":4576,"Ġexpressions":4577,"2954":4578,"tions":4579,"344":4580,"346":4581,"34759":4582,"34784":4583,"577":4584,"5724":4585,"57846":4586,"692":4587,"6975":4588,"691525":4589,"Ġabe":4590,"Ġ}}{{(":4591,"'''')":4592,"594":4593,"5947":4594,"380":4595,"\\|_{\\":4596,"\\|_\\":4597,"]+|\\":4598,"|,}":4599,"867":4600,"8696":4601,"8629":4602,"86539":4603,"}}}},\\":4604,"perty":4605,"}}^{}":4606,"BesselI":4607,"65859":4608,"bdi":4609,"height":4610,"}_{\\!":4611,"itions":4612,"37361":4613,"512903125":4614,"boux":4615,"'})|^":4616,"ihg":4617,"poonu":4618,"poles":4619,")}{|(":4620,"Ġconstants":4621,"}}+...+\\":4622,"Ġtransforms":4623,"))/(\\":4624,"measu":4625,"meaning":4626,"105861":4627,"},~~~|":4628,"7449":4629,"outside":4630,"Ġcegf":4631,"Ġcegh":4632,"Ġreal":4633,"dical":4634,"iuy":4635,"Ġaceg":4636,"Ġacfh":4637,"Ġ306":4638,"Ġ30225":4639,"75623":4640,"/[{":4641,"dgib":4642,"nqq":4643,"|)+(\\":4644,"istic":4645,")},\\;":4646,"Ġ{{{(-":4647,"Ġbdgh":4648,"Ġdenote":4649,"077":4650,"437816":4651,"439897":4652,"backsla":4653,"Ġproperty":4654,"area":4655,"Ġceigf":4656,"17280":4657,"){}^!":4658,"05258179":4659,"\\}):=\\":4660,"|},~~~~\\":4661,"comes":4662,"complete":4663,"iwx":4664,"state":4665,"Ġ35534":4666,"âĨĴ\\":4667,"7641":4668,"7648":4669,"764451":4670,"chPhi":4671,"Ġrational":4672,"Ġradical":4673,"Ġdiscrete":4674,"Ġevents":4675,"}}~(":4676,"Ġkhq":4677,"Ġcharge":4678,"Ġhypergeometric":4679,"Ġrdrd":4680,"ĠaeFI":4681,"Ġbdfgh":4682,"envalu":4683,"Ġcoefficients":4684,"Ġoscillations":4685,"984375":4686,"9849646":4687,"Geometric":4688,"Ġzero":4689,"}))}}}}{(\\":4690,"!/(\\":4691,"076968":4692,"85410":4693,"94586":4694,"LCG":4695,"LCM":4696,"xxtt":4697,"Ġlogistic":4698,"Ġafdgib":4699,"Ġregular":4700,"Ġ7680":4701,"68934":4702,"Ġdudvdwd":4703,"Ġcdgi":4704,"Ġcdghf":4705,"71828182846":4706,",:}":4707,",:}\\":4708,"87546":4709,"92775":4710,":=\\{(":4711,"Ġpiecew":4712,")\\!/\\!\\":4713,"Ġapproxi":4714,"Ġapplied":4715,"Ġharmonics":4716,"ĠrsK":4717,"Ġoutput":4718,"Ġoutcomes":4719,"Ġcehgf":4720,"arithmic":4721,"087449":4722,"21235864":4723,"2185":4724,"3498756":4725,"4271219":4726,"85769":4727,"9549":4728,"Inverse":4729,"Indeterminate":4730,"iota":4731,"llx":4732,"normalizing":4733,"})!+\\":4734,"Ġpara":4735,"Ġpartitions":4736,"Ġmulti":4737,"Ġ\\{\\,":4738,"))_{+\\":4739,"]{...}^{":4740,"]{...}}}":4741,"Ġ3445927":4742,")+...-(":4743,"Ġcfeih":4744,")|,|\\":4745,"}'|}}{|\\":4746,"ĠbdfEh":4747,"Ġinvolved":4748,"Ġinvolving":4749,"Ġconverge":4750,"718281828459023":4751,"0489756":4752,"Ġinversive":4753,"46952":4754,"5786":4755,"97667":4756,"Cosine":4757,"Fibonacci":4758,"wartz":4759,"Ġlemniscate":4760,"Ġthat":4761,"Ġimky":4762,"integration":4763,"Ġ1352":4764,"ĠCDI":4765,"12705258179":4766,"Ġcircuit":4767,"Ġcefihg":4768,"Ġ4476":4769,"Ġpositive":4770,"16734784":4771,"2078795":4772,"842707":4773,"Ġadfgi":4774,"Ġaeifi":4775,"262144":4776,"26253":4777,"Ġcontinuous":4778,"Ġdsdtdud":4779,"Ġdifferentiable":4780,"110514321":4781,"Ġmodulation":4782,"693147154271219":4783,"Ġrespectively":4784,"21047681156812794826243383279502884197169399375105861":4785,"32497":4786,"3819938":4787,"51171":4788,"53845":4789,"58016734784":4790,"620437816":4791,"636620437816":4792,"6573498756":4793,"92878":4794,"Adj":4795,"Arg":4796,"AiryAi":4797,"Antiderivative":4798,"BessJ":4799,"Darboux":4800,"Fractional":4801,"Gauss":4802,"HÃ´pi":4803,"LerchPhi":4804,"MNM":4805,"Mean":4806,"Parametric":4807,"Stokes":4808,"Schwartz":4809,"Theta":4810,"Vert":4811,"^...}}":4812,"aheid":4813,"begin":4814,"eigenvalu":4815,"joinrel":4816,"ntom":4817,"other":4818,"polylog":4819,"urth":4820,"uparrow":4821,"valid":4822,"vphantom":4823,"|)(|":4824,"Ġsqu":4825,"Ġlengthy":4826,"Ġamplitude":4827,"^{...}}}":4828,"rightharpoonu":4829,")\\!\\!\\!\\!\\!\\":4830,")\\|}{\\|":4831,"Ġequivale":4832,"tandard":4833,"}})^*}\\":4834,"}^{\\;\\;\\;\\":4835,"Ġnegative":4836,"Ġ1980":4837,"Ġ19558016734784":4838,"Ġ262144":4839,")^{|\\{":4840,"Ġbesselj":4841,"Ġbefi":4842,"Ġ32768":4843,"Ġ33600":4844,"ĠCaputo":4845,"ĠCharlier":4846,"Ġsolution":4847,"Ġsampling":4848,"ĠcdAgHi":4849,"Ġcubes":4850,"ĠcgEfD":4851,"Ġ425440":4852,"Ġ5461":4853,"Ġ583200":4854,"164627":4855,"ordinates":4856,"ĠGolden":4857,"variate":4858,"6475656":4859,"2470692":4860,"mnyzw":4861,"1735909":4862,"17696824":4863,"14286":4864,"1434107":4865,"1963497":4866,")},~~~_":4867,"687943":4868,"455362148":4869,"28128014":4870,"requency":4871,"48385":4872,"4862712705258179":4873,"similar":4874,"5405128212":4875,"76255975":4876,"90785405128212":4877,"ĠbdGeC":4878,"12058490785405128212":4879,"0047985":4880,"0088466":4881,"785714286":4882,"78767956475656":4883,"Ġinteresting":4884,"6915254862712705258179":4885,"measurable":4886,"439897455362148":4887,"backslash":4888,"Ġ35534320":4889,"Ġregularization":4890,"Ġpiecewise":4891,"Ġapproximating":4892,"Ġoutputs":4893,"212358641735909":4894,"Ġ344592760":4895,"2104768115681279482624338327950288419716939937510586112058490785405128212":4896,"381993828128014":4897,"63662043781646952":4898,"657349875617273":4899,"HÃ´pital":4900,"eigenvalues":4901,"rightharpoonup":4902,"Ġequivalent":4903,"Ġ195580167347846915254862712705258179":4904,"21047681156812794826243383279502884197169399375105861120584907854051282123028251185":4905,"Ġ195580167347846915254862712705258179512903125":4906,"!^{\\":4907,"!!\\":4908,"!)-\\":4909,"!...":4910,"!}}+\\":4911,"!)!}\\":4912,"!})^{-":4913,"!})(":4914,"!)}+":4915,"!!}}":4916,"!)^{(":4917,"!))^{(-":4918,"'m":4919,"'~":4920,"'-\\":4921,"'}-":4922,"'|\\":4923,"')}{(":4924,"'})\\":4925,"')]":4926,"')=\\":4927,"'))\\":4928,"'|^":4929,"'};":4930,"'+(":4931,"']}\\":4932,"']}}":4933,"']}-\\":4934,"(^{-":4935,"((-":4936,"(.,":4937,")[\\":4938,")<\\":4939,"))}}+\\":4940,")[-":4941,"*:":4942,"+}\\":4943,"+)}":4944,"+}^":4945,"+)}{":4946,"+),":4947,"+}}}":4948,"+)}(\\":4949,",_":4950,",|":4951,",~~":4952,"-{":4953,"-[\\":4954,"-[(\\":4955,".)":4956,".+\\":4957,"/(-":4958,"06":4959,"09":4960,"016":4961,"015":4962,"022":4963,"096":4964,"084":4965,"0384":4966,"092":4967,"067":4968,"061":4969,"0792":4970,"1101":4971,"210":4972,"264":4973,"364":4974,"318":4975,"336":4976,"354":4977,"3169":4978,"424":4979,"499":4980,"445":4981,"475":4982,"429":4983,"58":4984,"527":4985,"520":4986,"515":4987,"532":4988,"517":4989,"548":4990,"529":4991,"5729":4992,"589":4993,"5997":4994,"5894":4995,"521047681156812794826243383279502884197169399375105861120584907854051282123028251185":4996,"664":4997,"699":4998,"672":4999,"678":5000,"698":5001,"6144":5002,"659":5003,"638":5004,"639":5005,"665":5006,"637":5007,"6180":5008,"654321":5009,"714":5010,"748":5011,"749":5012,"790":5013,"798":5014,"7320":5015,"7300":5016,"7359":5017,"77816":5018,"88":5019,"822":5020,"835":5021,"898":5022,"857":5023,"869":5024,"879":5025,"856":5026,"886":5027,"897":5028,"874":5029,"883":5030,"8294":5031,"964":5032,"936":5033,"9756":5034,":(-":5035,"<-":5036,"<{\\":5037,"<|\\":5038,"=}\\":5039,"=[(":5040,">|":5041,"?}{\\":5042,"Ac":5043,"Am":5044,"An":5045,"Aq":5046,"Ass":5047,"Bg":5048,"BAB":5049,"Bkt":5050,"Bas":5051,"CE":5052,"Ca":5053,"Cr":5054,"Cu":5055,"CAB":5056,"Cas":5057,"Che":5058,"DG":5059,"Dx":5060,"Dy":5061,"Dir":5062,"Dkt":5063,"Diff":5064,"Differe":5065,"Derivative":5066,"EB":5067,"Er":5068,"Et":5069,"Ez":5070,"Erf":5071,"Fx":5072,"Fres":5073,"Finite":5074,"Frequency":5075,"GD":5076,"GF":5077,"Gi":5078,"Go":5079,"Gen":5080,"HA":5081,"Hf":5082,"Hankel":5083,"IU":5084,"Int":5085,"Ja":5086,"Js":5087,"Jens":5088,"KG":5089,"KH":5090,"Ka":5091,"Kn":5092,"Ku":5093,"Kine":5094,"Lp":5095,"Ls":5096,"Lim":5097,"Ma":5098,"Mz":5099,"Mat":5100,"Mas":5101,"NR":5102,"Ne":5103,"Ny":5104,"Non":5105,"Nik":5106,"Or":5107,"PQ":5108,"Po":5109,"Pro":5110,"Pas":5111,"Pen":5112,"Polynomial":5113,"Period":5114,"Power":5115,"Qu":5116,"Rx":5117,"Recursive":5118,"Riemann":5119,"SD":5120,"SE":5121,"St":5122,"Spa":5123,"Sec":5124,"Sine":5125,"Ste":5126,"Standard":5127,"SNR":5128,"SSE":5129,"TC":5130,"TJ":5131,"TX":5132,"Tf":5133,"To":5134,"Trans":5135,"TBA":5136,"TAx":5137,"VD":5138,"VF":5139,"WH":5140,"[^{":5141,"[{\\":5142,"[{}_":5143,"[;-":5144,"\\:":5145,"\\}^":5146,"\\}}\\":5147,"\\;\\":5148,"]:":5149,"][":5150,"]!}":5151,"]}-":5152,"]}}\\":5153,"]_\\":5154,"]!\\":5155,"])\\,":5156,"]^{(":5157,"]))}{":5158,"]}}+\\":5159,"]}{(-":5160,"]|^{":5161,"]*\\":5162,"]}^{(-":5163,"]|}{":5164,"_+\\":5165,"_+(":5166,"_-(":5167,"_-)":5168,"aj":5169,"acos":5170,"acosh":5171,"aab":5172,"action":5173,"bh":5174,"bin":5175,"bys":5176,"bdx":5177,"ber":5178,"bes":5179,"bst":5180,"band":5181,"babi":5182,"bject":5183,"cp":5184,"cfrac":5185,"ces":5186,"cess":5187,"cula":5188,"ccu":5189,"czx":5190,"cing":5191,"cay":5192,"che":5193,"ciat":5194,"dR":5195,"dc":5196,"dm":5197,"dp":5198,"damp":5199,"dimension":5200,"eI":5201,"eh":5202,"eu":5203,"ero":5204,"ead":5205,"eun":5206,"ent":5207,"eze":5208,"eber":5209,"fy":5210,"fdA":5211,"function":5212,"fset":5213,"fdg":5214,"fund":5215,"gh":5216,"gj":5217,"gk":5218,"gx":5219,"gat":5220,"given":5221,"hj":5222,"ham":5223,"hes":5224,"hkl":5225,"harmon":5226,"hXF":5227,"iB":5228,"iD":5229,"iX":5230,"iro":5231,"idy":5232,"ical":5233,"idu":5234,"ital":5235,"imaginary":5236,"iquadratic":5237,"iPV":5238,"iangle":5239,"jf":5240,"jkx":5241,"jnt":5242,"jac":5243,"kD":5244,"kH":5245,"kdy":5246,"lS":5247,"lr":5248,"lu":5249,"lv":5250,"lle":5251,"ling":5252,"lse":5253,"lVert":5254,"mT":5255,"mj":5256,"mer":5257,"mkx":5258,"met":5259,"mpq":5260,"mdf":5261,"mme":5262,"merical":5263,"nJ":5264,"nR":5265,"nw":5266,"ncos":5267,"nxy":5268,"ner":5269,"nkx":5270,"nkn":5271,"nif":5272,"ntal":5273,"ora":5274,"ody":5275,"ods":5276,"ound":5277,"ourth":5278,"oordinates":5279,"ociat":5280,"pf":5281,"pos":5282,"pdt":5283,"pqx":5284,"qV":5285,"qa":5286,"qg":5287,"qi":5288,"qpq":5289,"rc":5290,"rq":5291,"rw":5292,"rsu":5293,"rose":5294,"rit":5295,"rix":5296,"rVert":5297,"sK":5298,"sY":5299,"so":5300,"syz":5301,"system":5302,"standard":5303,"tU":5304,"tg":5305,"ti":5306,"tq":5307,"txy":5308,"transform":5309,"uc":5310,"ue":5311,"udu":5312,"ume":5313,"ulse":5314,"vs":5315,"vyt":5316,"we":5317,"wn":5318,"wise":5319,"xK":5320,"xP":5321,"xa":5322,"xqt":5323,"xpone":5324,"yQ":5325,"ya":5326,"ycos":5327,"ymath":5328,"ydy":5329,"ydA":5330,"zb":5331,"zyx":5332,"{,":5333,"{)}":5334,"{}(":5335,"{}^{-":5336,"{[(":5337,"{?}{\\":5338,"|]":5339,"|~":5340,"|)!":5341,"|}{(":5342,"|)!}":5343,"|)^{-":5344,"|=-\\":5345,"|)=":5346,"|)!}{(":5347,"|})}":5348,"|)}(":5349,"|)}+\\":5350,"|)^\\":5351,"|)}}{":5352,"|}}+\\":5353,"|)}-":5354,"|}{(\\":5355,"|))=":5356,"|)\\,\\":5357,"|}}-\\":5358,"|}\\,\\":5359,"|)/\\":5360,"||)":5361,"|)))+\\":5362,"|{{":5363,"|)(-":5364,"|))}{(\\":5365,"|}))-\\":5366,"|})}}{":5367,"|{}^{-":5368,"}&":5369,"}:":5370,"}<":5371,"}Â":5372,"}...":5373,"}_{-":5374,"}''(":5375,"})!^":5376,"}],":5377,"}|_{(":5378,"}>\\":5379,"}...}":5380,"Â±":5381,"ĠĠ":5382,"Ġpla":5383,"Ġdispla":5384,"Ġ)^":5385,"Ġ)}":5386,"Ġ}(":5387,"Ġpha":5388,"Ġlo":5389,"Ġlimits":5390,"Ġarctan":5391,"Ġ_\\":5392,"Ġps":5393,"Ġcoth":5394,"Ġover":5395,"Ġine":5396,"Ġ]_{":5397,"Ġsup":5398,"Ġarctanh":5399,"ĠÂ±":5400,"Ġ\\}}":5401,"Ġ\\}(":5402,"Ġ\\}(\\":5403,"Ġ\\!\\":5404,"Ġ\\},":5405,"Ġ\\|_":5406,"inz":5407,"inkx":5408,"inky":5409,"incomplete":5410,"^{+":5411,"^{+}(":5412,"}{}":5413,"}{{(":5414,"raph":5415,"ramid":5416,"lan":5417,"lative":5418,"(\\|":5419,"(\\|\\":5420,"ised":5421,"ysin":5422,"igh":5423,"igital":5424,"}\\|\\":5425,"}\\})}{\\":5426,"}\\|/\\":5427,"sines":5428,")^-":5429,"^{-[":5430,"^{-{":5431,"^{-}(":5432,"^{-}(\\":5433,"^{-}}\\":5434,"^{-[(":5435,"^{-}}}{":5436,"ĠxD":5437,"ĠxH":5438,"ĠxR":5439,"Ġxh":5440,"Ġxn":5441,"Ġxdy":5442,"ostat":5443,"talan":5444,"Ġ(*:":5445,")\\})":5446,")\\|^":5447,")\\}[":5448,")\\}^{(":5449,")\\!\\!\\!\\":5450,"Ġ+...+":5451,"succ":5452,"subject":5453,"}^{'}(":5454,"Ġ-(-":5455,"ĠdD":5456,"ĠdL":5457,"Ġdc":5458,"Ġde":5459,"Ġdl":5460,"Ġdp":5461,"Ġdamp":5462,"Ġdigital":5463,"matrix":5464,")}_":5465,")}}^{\\":5466,")}}(\\":5467,")})(":5468,")}_{\\":5469,")}^{-\\":5470,")}),":5471,")}}\\,":5472,")}...":5473,")})}(":5474,")}}}}":5475,")})^\\":5476,")})}-\\":5477,")}|_{":5478,")}]=":5479,")}))))":5480,")}},}":5481,"-\\!":5482,"-\\{":5483,"Ġes":5484,"Ġey":5485,"Ġexe":5486,"Ġelliptic":5487,"Ġenv":5488,")}{-":5489,"+\\\\":5490,"+\\{":5491,"thing":5492,"imn":5493,"amx":5494,"alyt":5495,"ality":5496,"alcula":5497,"tange":5498,"tangular":5499,"otion":5500,"}}*":5501,"}};":5502,"}}]":5503,"}}^{-":5504,"}}}^{\\":5505,"}})}\\":5506,"}})-":5507,"}}},":5508,"}}^{-\\":5509,"}}=-\\":5510,"}}}}{\\":5511,"}}))}":5512,"}}}_":5513,"}})}+\\":5514,"}}))+\\":5515,"}}]}":5516,"}})}-\\":5517,"}}+(":5518,"}}}}-\\":5519,"}};\\":5520,"}}}}}{":5521,"}}}}-":5522,"}}}}=":5523,"}}}}}\\":5524,"}}|)}":5525,"}}|)}{":5526,"}}}}{{":5527,"Ġdxx":5528,"Ġdxxy":5529,"}^{\\;":5530,"Ġyg":5531,"Ġyn":5532,"Ġydx":5533,"Ġyxe":5534,"Ġyzx":5535,"Ġfd":5536,"Ġfk":5537,"Ġfs":5538,"Ġfz":5539,"Ġfactor":5540,"Ġfiel":5541,"Ġfrequency":5542,"{({":5543,"{(|\\":5544,"omer":5545,"omor":5546,"omen":5547,"omplex":5548,"))}^{":5549,")))(":5550,"))!\\":5551,"))=-\\":5552,"))|^":5553,"))!}{(":5554,")))}=\\":5555,"))]_":5556,")))})":5557,"))+(-":5558,")))}{|\\":5559,")))^{-(":5560,"))]+":5561,")))=-":5562,"))|\\,":5563,"))]_{|":5564,"ĠkF":5565,"Ġkb":5566,"Ġke":5567,"Ġkg":5568,"Ġki":5569,"Ġkk":5570,"Ġkno":5571,")!=":5572,")!)}":5573,")!}^":5574,")!+\\":5575,")!!)^":5576,")!/\\":5577,")!}}}":5578,")!]^{":5579,")!)}^":5580,")!=(-":5581,")!~(":5582,"}({":5583,"}((\\":5584,"pagat":5585,"ĠtA":5586,"ĠtD":5587,"Ġte":5588,"Ġtg":5589,"Ġtrace":5590,"Ġtransfer":5591,"Ġtens":5592,"dxe":5593,"dxdsdt":5594,"ĠnD":5595,"Ġni":5596,"Ġnty":5597,"Ġnxe":5598,"]{{{\\":5599,"rol":5600,"roni":5601,"round":5602,"})^{(":5603,"}))}+\\":5604,"})]}":5605,"}))}-\\":5606,"}))}{(\\":5607,"})+(-":5608,"})|)":5609,"})]\\,":5610,"})|^{":5611,"}))}}}{\\":5612,"}),\\;":5613,"})]_{|":5614,"})]\\}":5615,"}(\\{\\":5616,"Ġdtdu":5617,"Ġdtdydx":5618,"Ġ{}^":5619,"Ġ{-\\":5620,"Ġ{{(-":5621,"Ġ150":5622,"Ġ130":5623,"Ġ197":5624,"ĠzD":5625,"ĠzP":5626,"Ġzn":5627,"proac":5628,"}{(|":5629,"Ġ22":5630,"Ġ210":5631,"Ġ224":5632,"Ġ236":5633,"Ġ230":5634,"Ġ265":5635,"Ġ289":5636,"Ġ2405":5637,"arx":5638,"ared":5639,"Ġak":5640,"Ġaq":5641,"Ġaeg":5642,"Ġasy":5643,"Ġagj":5644,"Ġaround":5645,")({\\":5646,"gend":5647,"genb":5648,")}\\}":5649,")}\\!\\!":5650,"}}{-":5651,"}}{[(":5652,"}}{{{":5653,"}}{=}\\":5654,"del":5655,"decay":5656,"quist":5657,"quality":5658,"ading":5659,"adratic":5660,")-(-\\":5661,",\\,\\":5662,",\\,\\,":5663,"dtdy":5664,"logarithmic":5665,"ĠiG":5666,"ĠiP":5667,"ĠiV":5668,"Ġip":5669,"Ġiw":5670,"Ġiyt":5671,"Ġitx":5672,"Ġijk":5673,"Ġiut":5674,"Ġits":5675,"abt":5676,"ĠDg":5677,"ĠDerivative":5678,"!}/":5679,"!})\\":5680,"itution":5681,"Ġba":5682,"Ġbn":5683,"Ġbs":5684,"Ġbcot":5685,"Ġbxi":5686,"Ġbxe":5687,"Ġbas":5688,"Ġbgf":5689,"Ġbgd":5690,"Ġbound":5691,"10678":5692,"}-[":5693,"erion":5694,"erized":5695,"erved":5696,"eromor":5697,"Ġ368":5698,"Ġ365":5699,"Ġ392":5700,"(-[":5701,"(-)}":5702,"ĠForm":5703,"ĠFiel":5704,"ĠFourth":5705,"egral":5706,"Ġgt":5707,"Ġgxy":5708,"Ġgiven":5709,"Ġgraph":5710,")!}}{\\":5711,")!}=-\\":5712,"},~~":5713,"oplus":5714,"Ġ(\\\\":5715,"erate":5716,"amental":5717,")+|":5718,")+|\\":5719,"ĠBW":5720,"ĠBf":5721,"ĠBru":5722,"second":5723,")_-":5724,")_+\\":5725,"|\\;":5726,"|\\}":5727,")}{(|":5728,"'(|":5729,"ĠCC":5730,"ĠCX":5731,"ĠCt":5732,"ĠCxy":5733,"ĠCor":5734,"ĠCart":5735,"ĠCDE":5736,"ĠCalculus":5737,"ĠCoordinates":5738,"ĠComplex":5739,"ĠIm":5740,"phic":5741,"mulative":5742,"124":5743,"12756":5744,"Ġur":5745,"xtu":5746,"cof":5747,"cobi":5748,"corr":5749,"cofactor":5750,"Ġqb":5751,"ĠqAm":5752,"ĠAD":5753,"ĠAb":5754,"ĠAc":5755,"ĠAt":5756,"ĠAu":5757,"ĠsC":5758,"Ġse":5759,"Ġsf":5760,"Ġsymbol":5761,"Ġsour":5762,"Ġstat":5763,"Deut":5764,"Ġcge":5765,"Ġcarg":5766,"Ġchf":5767,"Ġcfg":5768,"ĠciG":5769,"Ġcrit":5770,"Ġcalcula":5771,"ĠPQ":5772,"ĠPart":5773,"ĠPSD":5774,"),-\\":5775,")}}.":5776,")}}]":5777,")}}_":5778,")}}_{":5779,")}}))":5780,")}})}-":5781,")}},\\;":5782,"Ġ41":5783,"Ġ43":5784,"Ġ47":5785,"Ġ427":5786,"Ġ417":5787,"Ġ421":5788,"Ġ476":5789,"Ġ490":5790,"Ġ463":5791,"Ġ491":5792,"Ġ4707":5793,"ĠpA":5794,"Ġpoint":5795,"Ġpulse":5796,")=[":5797,")=|\\":5798,")={}_":5799,"}}{((":5800,"eser":5801,"esian":5802,"ĠSystem":5803,"))^(":5804,"Ġ}|\\":5805,"})\\;":5806,")]-\\":5807,")]^\\":5808,")]}}":5809,")]_{-\\":5810,")]}{(":5811,"ĠjY":5812,"Ġjb":5813,"Ġjc":5814,"Ġjh":5815,"Ġjk":5816,"))})\\":5817,"))})}\\":5818,"))}}-\\":5819,"))}))}{":5820,"))}))}\\":5821,"))})|_{":5822,"Ġ57":5823,"Ġ519":5824,"Ġ572":5825,"Ġ584":5826,"Ġ5120":5827,"Ġ592":5828,"Ġ507":5829,"Ġ539687":5830,"Ġ5856":5831,"Ġrh":5832,"Ġrecurs":5833,"Ġrip":5834,"ĠrAp":5835,"})}(":5836,"})}.":5837,"})}+\\":5838,"})}}-\\":5839,"})}(-":5840,"})})-\\":5841,"})}))}{":5842,"})}}{(\\":5843,"})}-(":5844,"})}})+":5845,"})}}{|":5846,"})}))}}":5847,"})}~(":5848,"Ġmg":5849,"Ġmh":5850,"Ġmodified":5851,"Ġmotion":5852,"Ġmeromor":5853,")!!^{-":5854,")!!(-":5855,")!!]^":5856,"1620":5857,"1623":5858,"1635":5859,"1679":5860,"1674":5861,"1643":5862,"16315":5863,"Ġdsdy":5864,"ore":5865,"stu":5866,"stcos":5867,"stead":5868,"dydy":5869,"dydz":5870,"bxz":5871,")|/":5872,")|>":5873,")|^{\\":5874,")|}(\\":5875,")|=\\":5876,")|}-\\":5877,")|)}{(":5878,")|),":5879,")|)}}":5880,")|}+":5881,")|)+\\":5882,")||^":5883,")|}}}":5884,")|}=":5885,")|)}-":5886,")|}{(\\":5887,")|)}\\,":5888,")|}~\\":5889,")|+|":5890,")|-|\\":5891,")|}}{((":5892,"^{(|\\":5893,"^{(+)}(\\":5894,"Ġwe":5895,"Ġ61":5896,"Ġ67":5897,"Ġ664":5898,"Ġ628":5899,"Ġ640":5900,"Ġ659":5901,"Ġ691":5902,"...=\\":5903,"Ġvx":5904,")}(|\\":5905,"ĠHef":5906,"ĠHyperbolic":5907,"ĠHeun":5908,"Ġ|_":5909,"Ġ712":5910,"Ġ772":5911,"Ġ735":5912,"}(-|":5913,")/[\\":5914,"2786":5915,"bserved":5916,"))}{-":5917,"nelS":5918,"}^{-}}{":5919,"\\{-":5920,")))^{-\\":5921,"))))}}":5922,"]\\!\\":5923,"Ġ...}\\":5924,"Ġ...)^":5925,"Ġ...)}":5926,"Ġ<=":5927,"ĠRL":5928,"!}\\,\\":5929,"\\})}{":5930,"\\};\\":5931,"\\}|)^":5932,"\\};-\\":5933,"Ġdue":5934,"onal":5935,"onse":5936,"ijn":5937,"variable":5938,"varian":5939,"''}":5940,"'')}-":5941,"'''-":5942,"dzdy":5943,"dzdydx":5944,")!\\;(":5945,"})).":5946,"}))_{":5947,"})))}":5948,"}))^{\\":5949,"}))=\\":5950,"})))}+":5951,"})))|}":5952,"}))^{(-":5953,"Ġ[_{":5954,"Ġ[(\\":5955,"Ġ[(-":5956,"114":5957,"1186":5958,"11428":5959,"Ġxye":5960,"},\\,":5961,"2017":5962,"2014":5963,"2025":5964,"2048":5965,"20736":5966,"640":5967,"645":5968,"647":5969,"6484":5970,"6449":5971,"6431":5972,"6498":5973,"64357":5974,"504":5975,"5025":5976,"dsdx":5977,"dsdq":5978,"^+(":5979,"^+}^{":5980,"^+))":5981,"ĠEy":5982,"ĠEz":5983,"ĠEyz":5984,"ĠEquation":5985,"ĠErf":5986,"ĠExpone":5987,"Biggm":5988,"Ġ82":5989,"Ġ875":5990,"Ġ891":5991,"]^{}":5992,"try":5993,"triangle":5994,"trostat":5995,"154":5996,"157":5997,"1545":5998,"15625":5999,"1541":6000,"_{-}":6001,"_{-}(":6002,"ctiv":6003,"ctnh":6004,"gnitude":6005,")!}\\,\\":6006,"|}=\\":6007,"|}~\\":6008,"ĠMC":6009,"cxxy":6010,"186":6011,"1814":6012,"1875":6013,"18764":6014,"18359":6015,"18521047681156812794826243383279502884197169399375105861120584907854051282123028251185":6016,"linear":6017,")}-|\\":6018,"240":6019,"2413":6020,"24520":6021,"irling":6022,"erfci":6023,"mnop":6024,"})^{-{":6025,"dukt":6026,"ductiv":6027,"!}{([":6028,"Ġoccu":6029,"Ġobserved":6030,"^+}~\\":6031,"ange":6032,"another":6033,"ĠTransform":6034,"ĠTwo":6035,"ĠTaylor":6036,"328756":6037,"32976":6038,"32679":6039,"};~":6040,"Ġdxdydw":6041,")}\\,|":6042,")}=?":6043,"dxdydydy":6044,"1765":6045,"17927":6046,"171617":6047,"130":6048,"131":6049,"137":6050,"138":6051,"1336":6052,"1387":6053,"1341":6054,"Ġ97":6055,"Ġ98":6056,"Ġ931":6057,"Ġ960":6058,"Ġ953":6059,"Ġ9504":6060,"')(\\":6061,"')^{-\\":6062,"')'(":6063,"')>\\":6064,"xxxy":6065,"xxzz":6066,"ikz":6067,"ĠQP":6068,"ntral":6069,")\\,\\,_":6070,"8149":6071,"81500":6072,"bcde":6073,"141":6074,"1448":6075,"1440":6076,"1407":6077,"^-(":6078,"191":6079,"1920":6080,"1996":6081,"1954":6082,"1939":6083,"1995":6084,"1974":6085,"19683":6086,"19328756":6087,"|=(":6088,"iid":6089,"iii":6090,"iiiint":6091,"ĠVector":6092,"ĠVariables":6093,"ĠUnif":6094,"Ġlm":6095,"Ġly":6096,"Ġlz":6097,"Ġlcm":6098,"99999":6099,"991541":6100,"Ġoffset":6101,"})^{(\\":6102,"{||\\":6103,")},}":6104,"2539":6105,"ĠNF":6106,"Ġ101":6107,")})_{":6108,")})(\\":6109,")}))}}":6110,"lity":6111,"^*)\\":6112,"^*)}{":6113,"^*))-":6114,"acb":6115,"ace":6116,"yze":6117,"yzx":6118,"Ġ12672":6119,"argmin":6120,"sic":6121,"sih":6122,"sible":6123,"Ġ~{\\":6124,"685":6125,"6854":6126,"6833":6127,"6889":6128,"68984":6129,"68016":6130,"6817927":6131,"230":6132,"231":6133,"237":6134,"23415":6135,"231387":6136,"2319328756":6137,"}/(\\":6138,"}/((":6139,"}](\\":6140,"}]^{\\":6141,"}]}}{\\":6142,"}]}}}":6143,"}]}{|\\":6144,"}|-":6145,"}|)^":6146,"}|}}{":6147,"}||^":6148,"}||}":6149,"}|)}{|\\":6150,"}||}{|":6151,")))}}}":6152,")))}}{(":6153,")))}}}\\":6154,"Trigonometric":6155,"))))^{\\":6156,")))))|_":6157,"453":6158,"4599":6159,"4538":6160,"4589":6161,"7296":6162,"2003":6163,"2007":6164,"2009":6165,"}}\\,{{\\":6166,"9656":6167,"96984":6168,"966484":6169,"9632679":6170,"967296":6171,"7589":6172,"75317":6173,"75822":6174,"}}}{{":6175,"}}}{{(":6176,"280":6177,"2880":6178,"2897":6179,"2895":6180,"2805":6181,"28750":6182,"rence":6183,"4835":6184,"4837":6185,"4873":6186,"4877":6187,"48835":6188,"}}-(\\":6189,"}}=(-":6190,"302":6191,"309":6192,"30127":6193,"30240":6194,"cefdA":6195,"Ġbxdx":6196,")*(":6197,")*[":6198,")*(\\":6199,"}},~~~":6200,"8496":6201,"ifD":6202,"nment":6203,"|))}}":6204,"}~|":6205,"minor":6206,"Ġexplic":6207,"Ġadj":6208,"Ġaefi":6209,"simeq":6210,"!\\,{}_":6211,"540":6212,"547":6213,"549":6214,"5476":6215,"5479":6216,"54389":6217,"Ġ276":6218,"Ġforcing":6219,"}'}}":6220,"}'|}\\":6221,"}')}{|\\":6222,"}'}{|\\":6223,"}'|>":6224,"}'|},":6225,"}'|}{|\\":6226,"}'|}\\,\\":6227,"491":6228,"498":6229,"4944":6230,"]}{[":6231,"||_\\":6232,"})-(\\":6233,"}}}\\;\\":6234,"Ġnxu":6235,"]\\,_":6236,"3597":6237,"4095":6238,"4062":6239,"404944":6240,"76568":6241,"766449":6242,"908":6243,"Ġ160":6244,"Ġ16384":6245,"Ġbdhi":6246,"Ġbdfh":6247,"Ġbdch":6248,"ĠbdHe":6249,"ĠbdGF":6250,")!!}{[(":6251,"|<(":6252,"|<(\\":6253,"({{-":6254,"Ġisin":6255,"12873":6256,"1286498":6257,"Ġinverse":6258,"Ġinstead":6259,"1206":6260,"768515":6261,")}(\\{":6262,"!}},\\":6263,"enomen":6264,"{|\\!":6265,"ABCD":6266,"drd":6267,"drds":6268,"Ġ~~~|\\":6269,"2697":6270,"2662":6271,"26749":6272,"2623415":6273,"klm":6274,"Ġsingular":6275,")})})})}":6276,"):=":6277,"):~~":6278,"):=(-":6279,"Ġ\\|(":6280,")\\}[\\":6281,"005":6282,"0068":6283,"785":6284,"7812":6285,"7895":6286,"784599":6287,"usion":6288,"Ġ){":6289,"Ġcosine":6290,"Ġcoordinates":6291,"Ġcolu":6292,"Ġcosines":6293,"Ġcotange":6294,"Ġcovarian":6295,"Ġcompone":6296,"Ġcompos":6297,"cdgh":6298,")}}}+":6299,"98159":6300,"987648":6301,"Ġ155":6302,"Ġ159":6303,"Ġ1536":6304,"Ġ189":6305,"CAC":6306,"606":6307,"6065":6308,"60679":6309,"606817927":6310,"})}}=":6311,"})}}}{\\":6312,"_{[-":6313,"Ġcdig":6314,"Ġcdhf":6315,"dudvdrds":6316,")}^{(-":6317,"hypergeometric":6318,"})/[(":6319,"Ġ24178":6320,"2968016":6321,"292897":6322,"akc":6323,"dwdudv":6324,"Ġbfd":6325,"Ġbfdi":6326,"ĠbfGi":6327,"343":6328,"5707":6329,"5711428":6330,"rse":6331,"rface":6332,"mptotic":6333,"691":6334,"6919":6335,"6928750":6336,"69785":6337,"emical":6338,"kmg":6339,"79512":6340,"79424":6341,"bius":6342,")!\\,_":6343,"Ġ203":6344,"Ġ204":6345,"Ġ2016":6346,"''''(-":6347,"5981500":6348,"59685":6349,"Ġ647":6350,").}":6351,"563":6352,"ĠbcDG":6353,")!},~~~":6354,"~~~|":6355,"3888":6356,"\\|(":6357,"|,|\\":6358,"86960":6359,"861448":6360,"|}}+":6361,"}}}}+":6362,"urrence":6363,"BACD":6364,"|>|\\":6365,"39344":6366,"65536":6367,"bert":6368,"hev":6369,"Ġxzy":6370,"ĠBesselJ":6371,"longleftarrow":6372,"3748835":6373,"37498":6374,"893":6375,"bola":6376,"fourth":6377,"Ġnumerical":6378,"Ġ141":6379,"(-||\\":6380,"port":6381,"}^*-\\":6382,"^{(-)}(\\":6383,"16958":6384,"BCAD":6385,"958":6386,"9522":6387,"956478":6388,"Ġ366":6389,"Ġ362880":6390,")<+\\":6391,"5765":6392,"Ġmean":6393,"trices":6394,"Ġdxdydzd":6395,"Ġdxdydzdwdudv":6396,"dxdydzd":6397,"dxdydzdV":6398,"ĠcdhB":6399,"Ġcdhg":6400,"7417":6401,"746833":6402,"Lambert":6403,"Ġmatrices":6404,"Ġiterate":6405,"Ġcegbd":6406,"Ġrelation":6407,"Ġreaction":6408,"ponenti":6409,"Ġmethods":6410,"two":6411,"Ġacegf":6412,"577216":6413,"46664":6414,"46714":6415,"EllipticH":6416,"dgA":6417,"something":6418,"istics":6419,"))))})":6420,"Ġ{{{({":6421,"Ġbivariate":6422,")^{\\!-":6423,")|)))(":6424,"ĠbdgE":6425,"Ġbdgf":6426,"Ġbdgi":6427,"'(-,":6428,"077812":6429,"43279502884197169399375":6430,"4330127":6431,"basic":6432,"mmer":6433,"|/|":6434,"Ġproble":6435,"Ġproject":6436,"Ġprobabi":6437,"Ġprocess":6438,"Ġpropagat":6439,"Ġ282":6440,"Ġanalyt":6441,"Ġcehi":6442,"ĠceHD":6443,"ĠceifD":6444,"})}={}":6445,"perbola":6446,"0518":6447,"05167":6448,"054877":6449,"TBy":6450,"TBAB":6451,"\\})<":6452,"auer":6453,"Ġdtdsdr":6454,"bfgi":6455,"bfghj":6456,"converge":6457,"421643":6458,"673":6459,"8642697":6460,"[{}\\;":6461,"composition":6462,"ssband":6463,"Ġsums":6464,"Ġsummation":6465,"Ġterm":6466,"}}{{}^":6467,"Ġsymme":6468,"cdhBg":6469,"Ceil":6470,"Central":6471,"TAy":6472,"chham":6473,"Ġraised":6474,"Ġ25987648":6475,"101101":6476,"Ġchange":6477,"Ġchemical":6478,"Ġhyperbola":6479,")]](\\":6480,"2160":6481,"9843":6482,"GeI":6483,"Gegenb":6484,"doinverse":6485,"domain":6486,"gue":6487,"}\\!-\\!":6488,"))'}^{":6489,"Ġtriquadratic":6490,"Ġafgd":6491,"Ġafgi":6492,"Ġ504":6493,"ĠLaguerre":6494,"Ġ8064":6495,"1961":6496,"19681":6497,"!/[(":6498,"')})]":6499,"568517":6500,"568874":6501,"8547":6502,"LCs":6503,"Ġalso":6504,"Ġdefined":6505,"Ġdefinite":6506,"ĠafE":6507,"ĠafGe":6508,"Ġafbgd":6509,"ĠafHe":6510,")}\\!\\!\\!\\":6511,")=|(":6512,"Ġregion":6513,"15918359":6514,"ĠcdghB":6515,"Ġoscillatory":6516,",:]":6517,"0449":6518,"7025":6519,"70746833":6520,"8757359":6521,"Combin":6522,"_+)":6523,"ccc":6524,"ccccc":6525,"pyramid":6526,"rring":6527,"Ġargume":6528,"Ġdiag":6529,")}}))}-\\":6530,"Ġ19683":6531,"Ġapproac":6532,"Ġidentities":6533,"Ġ403":6534,"Ġresidu":6535,"cycle":6536,"cyclic":6537,"427894":6538,"427191":6539,"51876":6540,"78425":6541,"9499":6542,"Example":6543,"Exponenti":6544,"GLB":6545,"GLBT":6546,"Low":6547,"]!_":6548,"]!!}\\":6549,"afigh":6550,"afGeI":6551,"}>-\\":6552,"Ġparametric":6553,"Ġpassband":6554,"!}+...=\\":6555,")+...+(-":6556,"ĠBCDCE":6557,"Ġcfd":6558,"Ġcfeg":6559,"Ġcsch":6560,"Ġmodel":6561,"14159265":6562,"483646":6563,"Ġconvolution":6564,"Ġconductiv":6565,"6931471765":6566,"974279":6567,"89476568":6568,"894427191":6569,"Ġbefgc":6570,"718281828459045":6571,"7182818284590265358979323846264338327950288419716939937510":6572,"Ġresponse":6573,"Ġacehg":6574,"Ġsequences":6575,"Ġinverses":6576,"Ġinversion":6577,"3178547":6578,"46918764":6579,"876659":6580,"9686":6581,"975464":6582,"93884":6583,"938529":6584,"Coefficient":6585,"agm":6586,"afgk":6587,"kwn":6588,"Ġleading":6589,"Ġsuch":6590,"Ġsubst":6591,"Ġsurface":6592,"Ġthree":6593,"integral":6594,"proximation":6595,"Ġbgdi":6596,"ĠbgGD":6597,"ĠFunctions":6598,"Ġcircle":6599,"Ġcefdi":6600,"ĠPFQ":6601,"Ġpossible":6602,"))},~~~|":6603,"100000":6604,"ĠLeibniz":6605,"ĠLebes":6606,"ĠLegend":6607,"207879512":6608,"15628":6609,"]_+,\\":6610,"Ġadfghe":6611,"asymptotic":6612,"Ġcontrol":6613,"ĠcdHE":6614,"ĠcdHF":6615,"ĠcdHg":6616,"56798159":6617,"1105143":6618,"ltivariate":6619,"Logarithmic":6620,"Ġmodulus":6621,"6931471568":6622,"Ġtransformations":6623,"+...)^":6624,"+...+(":6625,"-...+(-":6626,"-...}}}}}":6627,"112938529":6628,"3145729":6629,"3141814":6630,"43916315":6631,"5641875":6632,"564421643":6633,"63212":6634,"6962786":6635,"696157":6636,"70710678":6637,"9574":6638,"Approximation":6639,"Moore":6640,"Mobius":6641,"Mulle":6642,"Multivariate":6643,"Radial":6644,"Radon":6645,"Rectangular":6646,"Recurrence":6647,"^+\\\\":6648,"factorial":6649,"Ġphenomen":6650,"Ġlinear":6651,"Ġdouble":6652,"Ġdomain":6653,"Ġdimensions":6654,"Ġelectric":6655,"Ġelectrostat":6656,"Ġ1152":6657,"ĠbhGC":6658,"ĠbhdgA":6659,"},...,":6660,"),:})":6661,"),:},\\":6662,"})}~,~":6663,"Ġ68991541":6664,"ĠLCM":6665,"99806":6666,"9980568517":6667,"362880":6668,"54669785":6669,"35796984":6670,"3441939":6671,"34674":6672,"5777895":6673,"Ġparamet":6674,"Ġparabola":6675,"Ġmultiple":6676,"Ġmultivariable":6677,"20787951286498":6678,"otherwise":6679,"Ġsquare":6680,"Ġsquared":6681,"2104768115681279482624338327950288419716939937510586112058490785405128212302825118521047681156812794826243383279502884197169399375":6682,"')}{((":6683,"(.,.)":6684,"06789":6685,"0841":6686,"038478425":6687,"0671":6688,"0792689":6689,"33677816":6690,"4453441939":6691,"52771":6692,"5328":6693,"6995711428":6694,"639475":6695,"6653":6696,"61803":6697,"74862":6698,"7904":6699,"73205":6700,"73003169":6701,"8862":6702,"897346":6703,"8294967296":6704,"93625":6705,"97566":6706,"Acf":6707,"Associat":6708,"Basset":6709,"Catalan":6710,"Cromer":6711,"Cumulative":6712,"Casora":6713,"Chebys":6714,"Direct":6715,"Diffusion":6716,"Difference":6717,"Error":6718,"FresnelS":6719,"Goeber":6720,"General":6721,"Integral":6722,"Jacobi":6723,"Jensen":6724,"Kneser":6725,"Kummer":6726,"Kinetic":6727,"Magnitude":6728,"Matrix":6729,"Masche":6730,"Nyquist":6731,"Nonlinear":6732,"Nikody":6733,"Order":6734,"PQR":6735,"Pochham":6736,"Produkt":6737,"Pascal":6738,"Penrose":6739,"Polynomials":6740,"Periodic":6741,"Quadratic":6742,"Stirling":6743,"Sparse":6744,"Second":6745,"Stewart":6746,"Total":6747,"Transport":6748,"damped":6749,"dimensional":6750,"eudoinverse":6751,"eropyramid":6752,"fundamental":6753,"harmonic":6754,"ironment":6755,"vytz":6756,"|)!}}\\":6757,"}Â·":6758,"Ġplane":6759,"Ġdisplaymath":6760,"Ġphase":6761,"Ġlow":6762,"Ġpseudoinverse":6763,"Ġinequality":6764,"success":6765,"Ġdamping":6766,"Ġenvironment":6767,"Ġfactoring":6768,"Ġfields":6769,"))|\\,,":6770,"Ġknown":6771,"Ġtensor":6772,"Ġaegdi":6773,"Ġasymptotic":6774,"Ġbases":6775,"Ġbgfi":6776,"ĠbgdC":6777,"Ġboundary":6778,"ĠFormula":6779,"ĠField":6780,"ĠBruijn":6781,"ĠCorr":6782,"ĠCartesian":6783,"127567":6784,"Ġsource":6785,"Ġstatistics":6786,"Deuteropyramid":6787,"Ġcargh":6788,"Ġchfi":6789,"Ġcfgd":6790,"ĠciGE":6791,"Ġcriterion":6792,"Ġcalculation":6793,"ĠPartial":6794,"Ġ4707966484":6795,"Ġ539687404944":6796,"Ġrecursion":6797,"Ġripple":6798,"Ġmeromorphic":6799,"16238":6800,"16359656":6801,"167956":6802,"167424":6803,"Ġ691167424":6804,"ĠHefner":6805,"Ġ735759":6806,"})))}+(-":6807,"11865476":6808,"20141336":6809,"6435799806":6810,"ĠEquations":6811,"ĠExponential":6812,"Ġ87568984":6813,"185210476811568127948262433832795028841971693993751058611205849078540512821230282511852104768115681279482624338327950288419716939937510586112058490785405128212302825118521047681156812794826243383279502884197169399375":6814,"24520606817927":6815,"Ġoccurring":6816,"814970746833":6817,"14073748835":6818,"68541":6819,"23138712873":6820,"231932875620141336":6821,"}||}{||\\":6822,"9632679483646":6823,"753178":6824,"280534674":6825,"483569":6826,"483744":6827,"cefdAi":6828,"Ġexplicit":6829,"359746":6830,"406250":6831,"Ġbdchg":6832,"2623415185210476811568127948262433832795028841971693993751058611205849078540512821230282511852104768115681279482624338327950288419716939937510586112058490785405128212302825118521047681156812794826243383279502884197169399375":6833,"Ġsingularities":6834,"Ġcolumn":6835,"Ġcotangent":6836,"Ġcovariance":6837,"Ġcomponent":6838,"Ġcomposite":6839,"cdghjk":6840,"60655025":6841,"6067946664":6842,"Ġ2417824":6843,"296801639344":6844,"57079632679483646":6845,"692875043":6846,"794244":6847,"59815003141814":6848,"8614488757359":6849,"9564783":6850,"Ġiterated":6851,"Ġreactions":6852,"4327950288419716939937510":6853,"433012702":6854,"Ġproblem":6855,"Ġprojective":6856,"Ġprobability":6857,"Ġpropagating":6858,"Ġanalytic":6859,"ĠceHDG":6860,"05487723":6861,"convergence":6862,"Ġsymmetry":6863,"Ġ2598764816359656":6864,"Gegenbauer":6865,"56887433677816":6866,"1591835924520606817927":6867,"Combination":6868,"Ġargument":6869,"Ġdiagonal":6870,"Ġapproaches":6871,"Ġresidue":6872,"42789479":6873,"Exponentiation":6874,"Ġconductivity":6875,"894765683":6876,"8766595":6877,"Ġsubstitution":6878,"ĠLebesgue":6879,"ĠLegendre":6880,"20787951243916315":6881,"56798159753178":6882,"1129385291591835924520606817927":6883,"69627863178547":6884,"7071067811865476":6885,"Muller":6886,"Ġphenomenon":6887,"Ġelectrostatics":6888,"Ġ68991541127567":6889,"99805685171129385291591835924520606817927":6890,"35796984794244":6891,"Ġparameterized":6892,"2078795128649848":6893,"445344193923138712873":6894,"69957114286067946664":6895,"Associated":6896,"Casorati":6897,"Chebyshev":6898,"Jacobian":6899,"Mascheroni":6900,"Nikodym":6901,"Pochhammer":6902,"Ġ4707966484445344193923138712873":6903,"Ġ87568984231932875620141336":6904,"8149707468334327950288419716939937510":6905,"140737488355328":6906,"2968016393442623415185210476811568127948262433832795028841971693993751058611205849078540512821230282511852104768115681279482624338327950288419716939937510586112058490785405128212302825118521047681156812794826243383279502884197169399375":6907,"598150031418148149707468334327950288419716939937510":6908,"861448875735926":6909,"Ġ25987648163596561":6910,"56887433677816406250":6911,"998056851711293852915918359245206068179272968016393442623415185210476811568127948262433832795028841971693993751058611205849078540512821230282511852104768115681279482624338327950288419716939937510586112058490785405128212302825118521047681156812794826243383279502884197169399375":6912,"699571142860679466645777895":6913,"Ġ87568984231932875620141336998056851711293852915918359245206068179272968016393442623415185210476811568127948262433832795028841971693993751058611205849078540512821230282511852104768115681279482624338327950288419716939937510586112058490785405128212302825118521047681156812794826243383279502884197169399375":6914},"merges":["Ġ \\","i n","^ {","l e","t y","} {","r a","ra c","f rac","_ {","Ġ =","l a","( \\","i s","y s","p la","ty le","d is","dis pla","ys tyle","displa ystyle","i g","} \\","h t","ig ht","r ight","in f","inf ty","f t","le ft","s in",") ^","{ \\","^{ -","p i","in t","Ġ x","r t","o s","t a","Ġ (",") \\","Ġ +","s u","} ^{","c os","su m","Ġ -","Ġ d","m a","s q","sq rt",") }","} ^","- \\","Ġ e",") }{","+ \\","t h","i m","a m","sin h","d frac","l im","t o","a l","am ma","^ \\","ta n","o t","}{ \\","} }","Ġ( -","Ġd x","}^{ \\","Ġ y","l n","Ġ f","e ta","d ot","{ (","G amma","o m","c dot",") )","Ġ k",") !","^{ \\","} (","Ġ 0","p a","i al","in om","b inom","pa rt","part ial","Ġ\\ ,","Ġ t","ma th","d x","Ġ n","th eta","cos h","] {","p h","}^ \\","r o","} )","} (\\","Ġd t","_{ -\\","Ġ {","Ġ 1","Ġ z","p ro","}{ (","h o","Ġ 2","a r",")}{ \\","Ġ a","os e","c ho","cho ose","ph a","al pha","pro d","b f","math bf","l o","e x",") (","[ \\","g e","tan h",") }\\","} }{",") ^{","d e","{( -","r ge","la rge","q u","x y","a d",") -","qu ad","ar c",", \\","d t","lo g","b eta","Ġ i","Ġ J","a b","Ġ D","! }","de t","ig ma","i t","s igma","Ġ b","g amma","= \\","1 0","Ġ Ċ","lim it","limit s","_{ \\","ex p","n u","} -","arc tan","} -\\","e r","Ġ 3","n ab","nab la","( -","Ġ F","} }\\","l ta","e g","Ġ g",")! }","eg a","cdot s","om ega","e c","r m","_ \\","ex t","t ext","m b","! \\","d a","} ,","la mb","lamb da","o p","Ġ (\\","to r","e ra","op era","opera tor","am e","n ame","operator name",") +","Ġ B","s ec",") _","| \\","p s","^{- \\",")}{ (","math rm","Ġ K","' (","Ġ C","Ġ I","Ġ- \\","ph i","c ot","m u","a x","1 2","Ġ u","x t","i int","ps i","c o",". .","Ġ q",")\\ ,","co th","Ġ A",") ^{-","x i","Ġ s","b ig",") ^{\\","D e","Ġ c","De lta","Ġ h","o v","Ġ P",") ,","ov er","z eta","! (","= -\\","dot s",")} }","Ġ 4","Ġ p",") =","} }{(","e s","! )^","ta u","Ġ S",")! (",") )^","Ġ }",")! }{(","} +\\","} )\\","} }{\\",") ]","Ġ j",") )}",") -\\","Ġ 5",")! }{","Ġ r","} )^","} )}","Ġ m","Ġd y","\\ ,","c s","o int","Ġd z","} +","cs c","ro w","^{- (","ar row","de lta","{ (\\","lo n","right arrow","/ \\","] ^",") =\\","e psi","epsi lon",") )}{\\",") )\\",")! !","Ġ >","1 6",") +\\","Ġd s","o r","s t","d y","} _","b x","}^{ +\\","10 0",") |","im es","^{ (","}\\ ,","Ġ w","Ġ G","n x","Ġ 6","t imes",".. .","Ġ v","Ġ L",")} (","B ig","c al","Ġ H","math cal","Ġ {\\","a p","Ġ |","} )}{\\","Ġ 7","! }{","}( -","a t","l dots","Ġ\\ ;",") /","b ar","2 7","b s","big g","c k",") )}{",")} +\\","su bs","R e","ta ck","er f","n e","subs tack","n n","| ^","} ^{-","\\ {","x e","z t","{ -","}} }","pro x","ap prox","t frac",")) )","] \\","f lo","flo or","arc sin","Ġ ...","Ġ <",")) +\\","Ġ R","] }","! }\\",")^ \\","\\ }","i x","Ġd u","h i","k x","o n","i j","v ar","} )}{","' '","d z","( -\\",")! \\","} ))","Ġ [","xy z","Ġ\\ \\","1 1","\\ !\\","Ġx y","Ġd A","} ,\\","2 0","6 4","5 0","i on","r ho","Ġ /","d s","P hi",")} }{",")} -\\","}} (","^ +","i y","Ġ X","var epsilon","Ġ E","Big g","( (","Ġ 8","] ^{","} =","t r","}} +\\","1 5","le q",")) -\\","[ (","_{ -","c t","! ^","g n",")! }\\","| }","/ (","Ġ Y","Ġ M","in e","c x","s gn","Ġ :","}{( -","e l","ne q","1 8","Ġ= \\","l ine","~ ~",")} -","2 4","}{ (\\","Ġ W","p m","' '(","i r","erf c","over line","m n","}) ^{-","d u","! }{(","\\ {\\","l floor","r floor","Ġ o",")) ^{-","^+ }","a n","| _{","Ġ T","3 2","} ;",")) =","ge q",")! !}","Ġ: =",")!! }{(","} _{","Ġdx dy",")}\\ ,","y t","~ \\",")}{ (\\","] ^{-",")} =","dx dy","] _{","i z","+ (","u n","1 7",")} }{\\","ma ps","ir c","maps to","c irc","1 3","Ġ 9","' )","x x","i k","Ġ Q","n t","er e","m x",")\\ ,\\","8 1","t x","el l","Ġ{ }_","] (",")) }\\","A B","}} -\\","b c",")! ^","1 4","^ -","_{ |",") ^{-\\","1 9",")} =\\","q x","h at","| =","( |","i i","Ġ V","th e","x z","h ere","- (","Ġ U","Ġ l","i v","b t","} =\\","9 9","Ġo f","k n","}) ^{","{ |","} [",")} ,","Ġ the","}\\ ,\\",")} }\\","2 5","k t","L i","Ġ Z","Ġ N","}) (","' ,","] _","Ġ1 0","arc cos",")} )","l i","I m","d A","ct ion","\\ \\","] {\\","v ec","un ction","}} )","Ġf unction","^ *",")| ^",") >","< \\","j k","Ġ |\\","}^{ (","; \\","a c","}) -\\","d v","| }\\","y z",")} +","k k","Ġ1 2","2 2","] {(","] ,","b y","o l","ar g","i l","s i","w here","Ġ ~","2 1","} )\\,","Ġ= :","^- }","}) +\\",") )\\,",") /\\",", -","6 8",")) ^{","2 3","} /","o rm","Ġ {(-","n y","( |\\","es s","] =",")) (\\","\\ ,\\","Ġd v","bigg r","} ]","} |",")) )}","sec h","^{- |","Ġ {(","Ġd w","T r",")) ))","!\\ !\\","4 5","7 2","bigg l","20 0","3 6","i b","}}\\ ,","Ġ }{","ar ge","9 6","Ġ *","ma x","L arge","Ġ ~~","n s","7 5","= -","O m","c ap","Om ega","! )","h f","x F","}} }{","2 8","] ^{\\","u t","u la","f or","r e",")) )^","i c","Ġf orm","4 8","[ -\\","k b","p li","v e","}} -","}} =","}) }\\",")| _{","Ġ... ,",") (\\","P si",")) -","t z","Ġxy z","Ġform ula","3 0","c e","Ġx e","]{ -","! }{\\","+ (-",". \\","] }{\\","Ġb x",") *","y y","} ~\\","im pli","}} ,","de r",")_ +","dots b","impli es",") _{","8 4","i f","k y","n m","| )","} ~","Ġ _","var phi","' s","m in","^{ (\\","Ġe x","Ġa d","Ġa e","u v","a s","i th","z e","Ġ\\, \\","))} -\\","}^{ [","}) ^{\\","an d","' _","s im","}}{ (\\","!\\ ,","5 4","c hi","Ġ cosh",")) )+\\",")! }}","}) )}",")}} +\\","' }","}) =","Ġ2 7","12 5","il de","n i","su p","Ġf or","}) +","o d","p x","} '","Ġ O","Ġd r","}} }{\\",")] (","e t","x f","^+ }\\",") ,\\","3 3","n d","y x","^{- (\\",")) +","4 9","] }{","t s","| |","rac e",")} ^","}) -",") _\\","n b","}{ |","}\\ {","}} }\\","p r","}\\ !\\","i iint","{ {",")}{ |\\","Ġn x","arc tanh","i kx","ve rt","] +\\","] \\,","n f","} }^","]{ |","+ |","c u","k h","| _","Ġ( -\\","3 5","4 0","7 6","9 0","a z","b race","k e","k r","Ġd k","Ġ1 6",")( -","Ġb d","3 1","})^ \\",")!! }{","[ (-","] =\\","p q","s x","x D","| <","( {","y f","Ġ is","Ġa nd","12 8","Ġdu dv","p le","s h",")/ (","' ^","L e","t e","t ilde","Ġ in","}\\ ;",")) )\\","iv e",") ~","A i","n a","q f","| +\\","}) =\\","12 0",")] ^","\\!\\ !\\!\\","un der",") =-\\",") )}}",", ...","7 68","Ġ }\\","ra l","ft rightarrow",")} (\\",")^{- (","Ġw here","if f","cu p","Le ftrightarrow","! }}","e n","i xt","k ap","u le","z w","{ |\\","} )}{(","Ġ ,","Ġk x","Ġa x","at ion","AB C","kap pa","* {","- |","S igma","a st","d r","i d",")) )}{\\","ess el","Ġ~~ ~","2 6","E i","k l","p t","Ġ ^",")^{ (-",")= (","'' '(","[ (\\","] ^\\","x s","Ġ ft","Ġ sin","Ġ }}","Ġ\\ {","}{ |\\",")} )}",")} }{(","}} =\\",")) ^{\\","| ^{","} |^","qu ation","ĠD f","!} -\\",") :","n k","Ġ\\ |","sin c",")\\ }","}, -\\","20 19","25 6","ule r","' \\","0 0","7 8","f g","u s","Ġ )","Ġ co","}) ,","Ġc om","!}{ (\\","* \\","c d","Ġd V",")} }}","Ġe quation","9 8","E uler","k a","s et","Ġ int","Ġ cos",")} }-\\","Ġ1 1","Ġ1 5","Ġ1 8",")- (","csc h","iv at","ess ion","C A","h bar","y e","z f","{ -\\","}- (","))^ \\",")| }","ol y","ple x","! )^{-","6 0","] -","e qu","j i","k T","w ith","z q","z x","} )}}","_{ [","ig n","im e","big r","Ġc d",")| )","du dv",",... ,","( ;",") }^{","\\ ;","h y","n om","r es","| )\\","in g",")) )}{","}) /","Ġ2 4","Ġc is","Ġex pr","oly nom","Ġexpr ession","olynom ial","2 9","a k","c z","d w","n o","t ion","u x","} ))+\\","} ',","Ġ bf","to p",")) )-\\","big l","Ġp olynomial","3 4","5 7","B i","b n","i e","r s","Ġ ?",")}} =",")> -","Ġae i","[ -","d k","m k","m id","q t","r f","Ġx f",")\\ }(","math op","}) )}{\\","ivat ive","equ iv","- (-","= (-","R es","j j","m p","n g","r x","in d",")) (","dots m","ij k","}; \\","6 9","R ight","] -\\","e m","h s","k m","v t","Ġa b",")= (-",")] =\\","Right arrow",", -\\","7 9","a y","b i","n h","t k","w t","| ^{-","| ^{\\","} '(","Ġ }}{","ra ns","Ġd er","Ġe rf","lim sup","ot imes",")! \\,","Ġ2 0",")] |_{","Ġw ith","'' ''","14 4","19 2","5 9","] }\\","^ (","j x","y mb","{ {\\","}) ^{-\\","!} +\\","er i","Ġ6 4","Ġthe or","Ġcom plex","Ġint eg","ymb ol",") .","5 6","b ol","k j","m y","s ign","t t","{ [","| -","| -\\","Ġ( |",")) =\\","Ġk ind","pa ce","Ġb c",")!} ,","ĠA e","))}{ (\\","ds ymbol","~~ ~","bol dsymbol",") _{\\","3 8","3 84","B D","\\ |","] +","h n","{ }_","| ,","Ġd S","Ġy z","}) )}{","Big l","Big r","})) -\\","): =\\","' [","' (\\","8 6","h k","m t","x q","| }}","| <\\","} }^{\\","}{ [",")\\ ;","}} }}",")) ,",")! !\\","}) )^","ab c",")+ (",")= -","))} -","^* (","rans f","Ġtheor em","Ġinteg ral","! }(","( ^","8 0","9 7","u r","y i","left rightarrow","om e",")) )-",")! !(",")^{ (","(- (","Ġ[ (","ĠE i","^* (\\","- [","; -","c m","e f","k s","p er","s e","t f","w i","} }^{","Ġ or","Ġ- (","Ġd f","Ġf ir",")! }{\\","10 8","Ġm x","erf i","72 9","under brace","no limits","Ġbf g","Ġder ivative","Ġfir st","B A","B essel","] )","l m","| >",")) )=","ge r","10 24","})} -\\","100 0",")_+ ^","' -","3 9","6 5","b d","b e","h e","l li","m s","n ot","r vert","z n","| }{\\","} }^\\","} _{\\","} =-\\","Ġ ;","Ġ Re","}{ {",")^ (","Ġx z","ma l","}} )\\",")}\\ ,\\","it ion","mb er","ĠB essel","Ġs gn","lon g",")| _","50 0","^- }\\","3 7","5 12","8 9","] {(-","b k","b o","f o","x u","z z","| +","}^{ (\\","Ġy e","Ġn u","Ġ1 4","ad j","Ġi z","Ġb y","Ġ3 2","(- |","}}\\ ,\\",")] (\\","... +","Ġ| _{","Ġ\\; \\;","pm od","' )^","' })","+ }","[ ;","a e","i h","k i","k q","n r","p o","Ġ [\\",")} )^","}^ *",")}{ |",")) ]",")) )}\\","Ġds dt",")| }{","})}{ |\\","'' '","nt ial","ns tan","ral l","iff ere","Ġco nstan","ransf orm","fo rall","Ġnu mber","' }{","e d","g ger","n p","n z","{ }","| }+\\","^{ (-","Ġd iffere","}} +","Ġy f","Ġi k","Ġi y","}- (-","da gger",")] =","16 9","'' ''(","20 18","ut ion","hs pace","! )}",") ~\\","= (","> -","A t","B CA","X Y","\\ }(","a q","b z","c is","d binom","i ty","s y","| }}{","} |}","} /(","Ġ\\ }","}^{ (-","cos ec","Ġt ransform","det ilde","ĠC e","Ġq f","Ġdy dx","}+ (","Ġfunction s","ns ion","ng le","wi detilde","Ġconstan t","- (\\","9 5","A C","\\ }\\","m od","z y","| })","| =\\","}\\ !\\!\\",")} ~","}} (\\",")) /","}( -\\","}) )\\","}{( (","!} ,","Ġ3 6",")| <\\","xx x","under set",") <",") ...","4 7","5 76","A x","B x","D t","L a","c n","d f","i at","k z","m e","s k","s mal","| )}","| +|",")} )\\",")} }-",")) /\\",")! )^","]{ |\\","Ġ{ _","10 5","text rm","!\\ !","}, ~~~","ĠC A","Ġs eri",")}} }{\\",")] }",")] }{",")] }{\\","Ġm e","\\!\\ !","tr ic","18 28","Ġdxdy dz","dxdy dz","99 9","}' |}","Ġcd h","Ġor der","not in","smal l","Ġseri es","! )}{",") [",") }^{\\",") )}{(","+ (\\","6 3","7 4","9 2","D f","L am","L on","a i","a rt","f h","l brace","n T","o ut","p F","r ime","t u","u b","x b","| )}{","} [\\","Ġ ma","^{ [",")} ~\\","to n","}} (-",")) ^{-\\","pa nsion","}) ]","}) _","}) (\\","Ġ{ }_{","de f","Ġi t","}, }","ĠA x","Ġs t","Ġc eg","Ġp rime","Ġr e",")!! }\\",")| }\\","})}{ (\\","Bigg l","Bigg r","Ġ8 1",")))) ))","Ġ~~ \\",")_+ ^{","Ġex pansion","pr ime","Ġ}}{ {","Ġerf c","po ne","Ġme th","Lon g",") ;",", }","C D","C i","] ;","b da","c y","d S","d i","e q","i u","s p","t w","v er","v ol","x J","| )^","} )))","^{ |","ra nk","_{ |\\","pla ce","Ġx t",")} ))",")} )-\\","}} [","Ġy t","{( -\\","Ġk T",")! }(",")! (-",")! /(","Ġn y","}) |","}) _{","Ġ{ -","Ġa c","}}{ {\\","Ġi kx","Ġb e","er min","Ġ3 0","), }",")= (\\","!)^ \\",")] \\",")| +\\","\\{ -\\",")}}{ {","~~ \\","75 6","pt ic","Ġcos ec","57 72","lli ptic","Lam bda","Ġmeth od","! }(\\","' d","' )\\","' ,\\","* [","/ [","0 1","4 6","8 3","; -\\","C ov","E lliptic","] )^","] }}","d g","e w","n q","s C","s z","s ome","| ))","| }(","| )+","} |\\","Ġ to","Ġ ln","Ġ math","Ġ sec","is t","ta tion","}^{ +","}^{ [\\","Ġd et","Ġd en",")} ,\\",")} )=","}} _{",")) )^{-",")) ))}",")) |_{","Ġk y",")! }(\\",")! }-","Ġt f","Ġn t","]{ (\\","}) /(","Ġ{ {","Ġz t","ab cd","it x","Ġb i","Ġb t","ĠB e","|\\ ,",")^{\\ !","Ġc x",")}} +","Ġp x","))} =","))} +\\","})} )",")| ))","]} =\\","24 3","28 8","min us","!\\, (","Ġbd g","set minus","Ġden ot","! }^","' (-","( ,","( [","0 7","4 3","6 2","8 7","\\ }}","] '","] }(","a us","b a","b p","i math","i ux","m m","o ur","q e","q quad","r brace","r dr","t v","t dt","w o","x w","| /","| ))\\","Ġ _{","Ġ }{\\","Ġ pro","Ġ sech","in ition","in ity","}{ -","_{ (","(\\ {","inf inity",")) )}-\\","}( (","Ġ2 1","Ġ2 8","ar e","Ġa n","Ġi b","it e","ĠA B","Ġc e",")}} =\\",")!}{( -",")] -","})} =","\\, (","subs et","]\\ ,\\","}= -","|_{ (","17 28","li c",")|_{ (","Ġex pone","Ġpolynomial s","per bo","5772 15","Elliptic F","! ^{","! ^{-",") {","0 5","3 75","= [\\","> \\","B t","T B","[ -(","\\ })","] |_{","a u","a top","h z","i er","j l","k C","l vert","n dx","n ce","p e","r el","s tyle","v ot","y F","z g","| }{","| }-\\","| },","} .","} ]}","pi vot","Ġx B","Ġ( (","Ġ- (\\",")} [",")} )+\\",")}{ -\\","}} }-\\","}} ~\\","Ġt wo","]{ {","Ġdt ds","Ġ{ (\\","bf g","ge n",")- (-","dt ds","!} -","}- (\\","ĠF ib","text style","co n","))} }\\","}+ ...+","dy dx","... +\\","Ġ7 2","at e","Ġ... \\","ĠR es","})) +","}= (-","tr ix","18 0","13 5","})^{ (-","re al","ce il","40 96","Ġ}}{ {\\","ome tric","ew ton","our ier","perbo lic","! ,","' \\!\\",") '",") |\\","+ ...+","- |\\","1 105","4 2","5 1","6 7","6 25","7 1828","8 64","9 1","R C","[ {","c i","c om","d V","f x","f ic","i w","j m","p n","q y","r z","s s","s ta","t ic","w er","x B","| |\\","} *","â Ĩ","Ġ sum","Ġ ĠĊ","Ġ\\ :","ra ngle","ys te","Ġx J",")}{ [","}} )}","}} )}{","{( (",")) )^{\\",")) ))}{\\",")) /(","Ġk f","Ġk n",")! ]",")! ^{-","}( |","Ġt er","Ġ1 7","ar y","}}{ {",",\\ ;","Ġi e","Ġi x","Ġ3 5","ĠB C","Ġs y","Ġs ign","Ġc ur",")] +","))} =\\",")| +",")| )}{\\","27 9","'' ,","})) -","})) }\\","Ġ[ -","]^{ (-","}= (","ine d","an h","an t","^- }(","19 7","Ġ10 0",";\\ ;","si an","|< |","under line","cd h","ie nt","ef fic","|+ |\\","art anh","Ġma trix","Long leftrightarrow","ver se","vol ution","ermin ant","aus sian","subset eq","âĨ Ĵ","yste m","effic ient","! })","' }\\","' }^","3 99","7 20","7 64","B eta","C e","N ewton","T A","[ ^","b m","c h","c il","d iv","i ab","j B","p p","s f","s r","s tack","u rs","u lli","v y","x g","z h","{ [\\","| ^\\","| }}\\","Ġ ra","Ġ dis","Ġ os","Ġ Gamma","Ġ }}}","Ġ are","in ary","le ng","}{ }{","}{ [\\","la ngle","is ts","sin g","os ition",")\\ |","Ġ- |",")} }}\\",")} },",")} =-\\","Ġe ve","}} ~",")) ]^",")) )}+\\","Ġk h","Ġk t","Ġk u",")! )","Ġt s","ro ot","}) _\\","Ġz q","Ġ2 5","ex ists","}}{ |\\","10 1","er no","ec t","ec tor","ec urs","Ġu sing","Ġc h","Ġc y","Ġh y","es en",")] ]",")] _{",")] +\\","))} )","))} }{","Ġr dr","})} }{","}+ (-","}+ ...+\\","]^ *",")| )}",")| }{|","Ġ6 0","Ġ\\; \\","\\} *","on d","'' [","})) =","})) _","50 28","ds dt","un def","ik R","Ġ12 8","Ġ~ {}_",")* \\",")_+ ^\\","84 197","}~ (","Ġae F","'} |}","pr esen","Ġbd i","Ġbd fg","en v","Ġco efficient","eri od","Ġdiffere ntial","169 399","cosec h","}\\!\\!\\ !\\","Ġre presen","Ġter ms","279 5028","cil la","iab le","stack rel","Ġos cilla","erno ulli","undef ined","84197 169399","Ġrepresen tation","2795028 84197169399","279502884197169399 375","! )\\","! )^{","! )^{\\","! /(","( )",", +\\",". }","0 2","2 16","3 20","9 84",": \\","= ,","G e","N N","\\ |^","\\ |_","] }-\\","] }+\\","b r","d d","d o","g u","i zt","j d","j s","k c","l t","l us","r n","s on","Ġ }^\\","Ġ long","}{ [(","}\\ !","}\\ }",")^ *","Ġx u","ta l","Ġ+ \\","ma tion",")} )}{",")} }}{",")}{ (-","}} }^{","Ġy x","Ġf g",")) '",")) )+",")) )))",")! _","^{\\ ,","binom ial","Ġt r","}) /\\","Ġ{ [","Ġ1 3","Ġz e","Ġa z","Ġa bc","Ġa fg","lo r",")- (\\","Ġb xy","}- |",")+ (-","ĠB y","ĠA i","Ġs pace","Ġs ystem","Ġp eriod",")!}{( (","Ġj X","Ġ5 0","))\\ ,\\",")!! }}",")| <","ĠL a","{- (","Ġ... }","on ac","'' )","'' +","})) ))","Ġ8 0","Ġo dd","}; -\\","]_{ |","Ġ9 6","14 7","19 6","}] }{\\","Ġ~~ ~~\\","re nt","der ivative","if ie","}))} }}","od ifie","33 83","26 5","Ġsin e",")!\\, (","}^* (","Ġdiffere nce","AC B",")... (",")... \\","La place","sC R","Ġdet erminant","Ġexpone ntial","sta r","ecurs ive","onac ci","odifie d","3383 279502884197169399375","! /","' +","' =","' )}","' }(","0 76","3 15","5 68","8 5","8 54","9 45","; ;\\;","< |","= :","B C","D E","G CD","G aussian","L C","M odified","\\ !","\\ }^{","] _{-\\","b xt","b mod","c a","c eg","c re","d W","d dot","g f","g cd","h x","i q","i es","j e","k F","l j","m c","m f","m on","n C","o wer","p k","p osition","q h","r h","r j","t B","t er","t race","u ct","w x","x k","x xt","y D","z i","z s","| )}\\","| })\\","} ^{-\\","} /\\","} ]^","} ')","} |}\\","~ _","Ġ ty","Ġ al","Ġ }^{\\","Ġ log","Ġ operator","Ġ cot","in verse","ra tic","la nd","(\\ ;;\\;","}\\ \\",")^ -\\","^{- |\\","Ġx I",")\\ \\","}^{ }","Ġ- {","Ġd F","Ġd ef",")} ]",")} }(",")} )}\\",")} )}}{",")}{ [(","am p","lim inf","}} })","}} }{(","}} |\\","Ġf il",")) )^{",")) ))+\\",")) )}-",")) )}{(\\",")! (\\","Ġt B","Ġ{ {\\","Ġ1 20","Ġz x","ar sinh","ar mon","Ġa J","Ġa f","Ġa ny","Ġa fh","prod uct",")}\\ !\\!\\",")^{ |","arc cosh",",\\ {","Ġi f","ĠD t","er re",")!} =","}, -","}, ~\\","era l","ĠB u","Ġu v","big cup","Ġh A","), (","over brace",")= |","))} +","))} }{\\","Ġ5 4","Ġ5 6","Ġr eg","})} -",")!! ^","16 2","or mal",")| )\\",")| }}+\\",")| }{|\\","ĠL i","Ġ7 68","\\{ [","}}} =","Ġ... )","]} =","\\} ,\\","20 22","50 40",")}}{ (\\","^+ )","tr ib","15 9","14 8","iv es","99 7","^* _","si de","68 9","}| |_","30 0","}' ,\\","40 5","Ġdudv dw",")~ _","\\!\\!\\!\\ !","00 1","Ġ18 0","ivat ives","Ġcd g","79 5","Ġder ivatives","ransf er","Bessel J","bo dy","ae i","Ġnumber s","ub le","ub ic",")))))) )))","Ġsec ond","Ġdenot es","577215 69","71828 1828","Ġdis trib","Ġeve n","ĠaeF i","Ġoscilla tor","gu erre","ĠLa place","cre te","Ġfil ter","Ġdistrib ution","! )(","! }(-","! ~\\","& \\","' +\\","' },","' )\\,","' \\,","' })}{|\\","( (\\","+ {","+ |\\",", :","- {\\",". ,","0 4","0 48","1 50","3 125","6 6","7 0","8 96","8 75","9 27",": =\\","= ?","A D","C x","C om","C au","D ix","F ourier","H er","H ess","M n","P f","P r","S i","V ar","\\ }(\\","] .","] }^","] }}{","] ,\\","] }(-","_ +","a xy","c c","c q","c hy","d B","g ra","g inary","i p","i ut","j y","j math","k f","l k","l ceil","m q","m r","m ite","n L","n it","o x","p y","q z","r r","r u","r ceil","s L","t A","t ds","y w","z k","{ [-","| ^{-\\","| )}}","| )+\\","| -|","} _\\","} )!(","} ~~","} |_{","} *\\","Ġ pi","Ġ sinh","Ġ partial","Ġ ,\\","Ġ arg","Ġ gen","Ġ root","in ite","ra tion","ig on","Ġx q",")\\ !","Ġd i","ma ginary",")} })",")} )\\,","im ple","al u","al cu","}} )^","}} }+","}} )^\\","Ġf x",")) )=\\",")) )^\\",")) ))}\\",")! }-\\","Ġt ime","Ġn z","}) |^","}) )}-","}) -(","}(\\ {","Ġ1 9","Ġz y","Ġ2 16","ar ith","ar iable","Ġa p","Ġa t","de nt","de hat","xy y","quad ratic","arc sinh","Ġi Q","Ġi xy","Ġi dent","ab q","Ġb q","10 4","Ġ3 84","(- |\\","ĠF ourier","mb ox","12 1","Ġu nit","Ġq x",")^{- (\\",")^{\\ !\\!","Ġc t","Ġc u","Ġh f","Ġh x","Ġh armon",")}} )\\","Ġ4 0","Ġ4 8","Ġ4 9","Ġp ower","})\\ ,\\",")] )","Ġj x","))} }}",")!}{ (\\","Ġr s","Ġr x","Ġr es","Ġr ule","})} }\\","})} }{\\","Ġm n","}+ |",")!! }{\\",")| }{\\","^{( -\\","... }","Ġv y","Ġ| |\\",")/ [",")/ (\\","\\!\\ !\\!","20 20","64 6","64 9","Ġo ut","32 1","iz ed","^- )","Ġ10 24","}] }\\","}| }}","!\\!\\ !\\","36 0","Ġ~~ ~\\","75 9","for mation","re e","uv w","}' )\\","ĠO DE","),\\ ;","{{ {","40 0","Ġcom position","Ġbf h","ay lor","eri cal","|, |","per p","wi dehat","|> \\","Ġ14 4","La guerre","def inition","Long rightarrow","cy c","rdr d","Ġce h","577215 6","ĠFib onacci","Ġcur ve","do uble","Ġperiod ic","Ġal l","Cau chy","Dix on","Her mite","gra d","Ġgen eral","igon ometric","alcu lus","arith m","ariable s","! }}{","! )-","! )!}","! )}{(","' ^{","' )}{","( {(\\",") &\\","* (","* }\\","* ^{-","+ {\\","+ }^{\\",", ~","- ~\\","0 8","1 32","2 12","2 18","2 25","3 96","3 49","3 147","4 1","4 27","4 32","5 18","5 84","6 27","6 50","7 36","7 84","8 59","8 576","9 3","9 4","9 54","; \\,","= {","B inom","B ernoulli","C on","C ay","D F","D is","E F","E R","E x","G L","H am","I n","L o","N p","P V","P er","R T","T aylor","V C","V ector","\\ },","\\ |_{","] !","] )}","] _{\\","] ^{-\\","] =-\\","] }+","] /\\","] -(","a f","a v","a tanh","a fh","b le","d le","e ger","f i","g c","g d","g g","g le","h q","h ar","i o","i cs","j r","j ik","k B","k R","k d","k p","k v","l l","m i","m z","m em","n B","n F","n j","n ormal","o is","o lta","o tation","p b","p oint","p ut","q s","r F","r k","r ic","s b","s j","t D","t n","t dz","t ing","v w","v x","w s","w xy","w ed","x h","x n","x rightarrow","y j","y perbolic","z F","z u","{ }_{","{ }{}{","| )}{\\","| _{\\","| ),","| }}{\\","| ))}\\","| }{|","} >","} )!","} [(","} ]_","} :\\","Ġ &","Ġ ]","Ġ ^{","Ġ ig","Ġ ^{-","Ġ }^","Ġ pa","Ġ part","Ġ }{(","Ġ gamma","Ġ mu","Ġ binomial","Ġ\\ {\\","Ġ\\ {(","in x","le y","}{ }_{","ra y","_{ {\\","(\\ !","(\\ !\\","}\\ |^",")^ (-","Ġx g","Ġx dx","Ġx st","rt ies","Ġ( |\\",")\\ }(\\","}^{ |","}^{ {\\","Ġd B","Ġd W","Ġd q","Ġd eg","ma nn",")} ;",")} _{",")} )^{",")} (-",")} )+",")} )^{-",")} /\\",")} )/",")} )}}{\\","am ple","al leng","}} )+\\","Ġy i","Ġy u","Ġf ind","{( |",")) |",")) _{",")) ,\\",")) ))^",")) ))-\\",")) |}",")) ))=",")) |}\\",")! ]^",")! !\\,","}( [","Ġ\\, _","Ġt x","Ġt imes","dx f","Ġn a","Ġn th","Ġn otation","]{ -\\","]{ ...","ph erical","}) ,\\","}) )\\,","}) ^{-(","}) }\\,","}) ~\\","}) ]_{","Ġ{ {{\\","Ġ1 92","Ġ2 6","Ġ2 56","ar ray","Ġa s","Ġa ce","}}{ [","de g","xy e","Ġi v","Ġi maginary","ab k","ab x","ĠD e","!} +","!} }\\","!} =\\","det ermin","Ġb J","_{\\ !","Ġ3 4","Ġ3 9",")+ (\\",")+ ...","ĠB i","ĠB CD","ĠB ernoulli","ĠB EF","xt t","Ġq e","ĠA X","Ġs T","Ġs x","Ġs equ","big cap","Ġc f","Ġc s","Ġc alculus","over set","Ġ4 80",")= {\\","}}{( -","ĠS ER","Ġ} ,\\",")] ^{-",")] \\,",")] ](","))} (\\","Ġ5 76","})} +","})} ,","})} ^","})} )\\","Ġm o","^{-( (","16 0","}_ *^{-",")| ,","... \\","Ġv t","Ġv ariables","Ġv olta",")}( -\\","Ġ| |","Ġ7 5","Ġ7 20","Ġ7 29","27 0","))}{ [","]\\ \\","]\\ }","\\} =","\\} _{","'' ',","})) (","})) ^{","})) ^{-","xyz w","20 1","64 3383279502884197169399375",")}}{ {\\","}}( |\\","Ġ8 9","18 9","~~ ~~\\","an gle","32 384","}; -","))= :","))= (-","ik j","nt er","14 159","xz w","Ġ10 5","Ġ10 8","^* [","^* }","^* }\\",";\\ ;\\","il ton","68 7","))^{ (-","}/ [","}] }(-","}| /","}| ^{",")))} }-\\",")))) ]","45 90","200 8","96 0","ula r","re f","re en","48 3","pli c","Ġxyz w","ce nter",")_+ ^{\\","}' |}}{","35 9","35 89","76 9","Ġbd f","pq rs","Ġin ver","Ġin vol","78 9","Ġco n","Ġequation s","set point","Ġint eger","Ġint ric","Ġcd fg","ing s","29 4","tion al","ie mann","mid dle","69 3147","79 32384",")]|_{ (","'''' '","abc de","97 4","BA C","|> |","long rightarrow","89 1","89 4","}^* (\\","}\\!\\!\\ !","Ġma pp","Ġceg d","Ġbe fg","))))} ))))","Ġdenot ing","62 643383279502884197169399375","Ġ_{ {","Ġpro pe","Ġ28 8","Ġexpone nt","gen frac","con st","con volution","com plex","Ġsign al","Ġcur rent","leng th","Ġch alleng","Ġtr igonometric","265 3589","Ġdef inition","amp l","718281828 4590","048 9","Com plex","Ġident ity","Ġres p","ĠODE s","Ġgeneral ized","Binom ial","Con volution","Cay ley","DF T","Dis crete","Ham ilton","ois son","wed ge","Ġdeg ree","Ġace h","determin ate","Ġsequ en","Ġvolta ge","Ġinver s","Ġintric ate","7932384 62643383279502884197169399375","Ġmapp ings","Ġprope rties","Ġchalleng ing","2653589 793238462643383279502884197169399375","2653589793238462643383279502884197169399375 10","! +","! -","! +\\","! )}{\\","! (-","! }\\,","! }}}","! }{(-","! }},","! /[","' _{","' )}{\\","' )(","' )}{|\\","( {-","+ }(","- )","- }","/ (\\","/ [(","2 104","3 17","4 15","4 28","4 69","5 36","5 78","5 34","5 39","6 1","7 1","7 50","8 76","8 756","9 68","9 72","9 75","9 76","9 38",": |","= {\\","A M","A s","B T","C o","C y","C ubic","E X","E Y","F G","F ib","G C","H D","H yperbolic","R a","S imple","V f","X F","\\ }}{","\\ |\\","\\ }}{\\","\\ }}}","] *","] ]","] )\\","] ),","a P","a g","a tan","a fg","b q","b ut","b gd","c T","d b","d h","d l","d q","d inary","e z","e ntial","f G","f f","f inite","h B","h en","i G","i I","i K","i P","i Y","i a","i xy","i dt","i bx","j h","j n","k u","k w","k dx","k dt","k el","l h","l s","l y","m l","n c","n dt","n iz","n zq","r J","r y","r ession","r ecursive","s H","s T","s n","t ive","t ransfer","u g","u p","u w","u y","u z","u de","u rent","v r","v dots","w y","w art","w hen","x A","x I","x v","y g","y mp","z I","z dz","{ _","| _{-\\","| ,\\","| }-","| )-\\","| }\\,","| )))","| })}{","| }}=","| }{|\\","| })}-\\","} )!}","} ]\\","} ](","} )}}+\\","} ~~~","~ (","Ġ !","Ġ le","Ġ rt","Ġ su","Ġ )}{","Ġ th","Ġ im","Ġ tan","Ġ !}","Ġ limit","Ġ }}\\","Ġ ]^\\","Ġ product","Ġ quadratic","Ġ\\ |\\","}{ {\\","}{ {(-","}{ }_","ra me","Ġ= }","la w","la tion","is e","}\\ {\\","}\\ ;\\","left arrow","sin e","int eg","Ġx A","Ġx F","Ġx K","Ġx W","Ġx i",")\\ ;\\",")\\ \\|","Ġd X","Ġd Y","Ġd h","Ġd m",")} ^{-",")} ))=",")} +(",")} *\\",")}{ [\\","ot ential","}} _","}} }}{","}} }-","}} }}\\","}} }+\\","}} }}}","}} }{(\\","Ġf n",")) !",")) )}}",")) )]",")) }\\,",")) ~\\",")) )|_{",")) |)","Ġk j","Ġk z",")! }(-","Ġt dt","Ġt rans","dx ds","Ġn k","]{ }","ph son","ro r","}) )^\\","}) |_{","}) |_","Ġdt dx","Ġ{ }","Ġ{ }^{-","Ġ1 68","Ġ1 35","Ġ1 91","Ġz eta","pro xi","lo wer",")}\\ \\","}}{ |",")^{ [","rge ometric","xy zt",",\\ ;\\;","Ġi K","Ġi d","ab i","ĠD y","!} =","it ude","Ġb g","Ġb z","=\\ {(","10 7","Ġ3 8","ĠF unction","eg f","Ġg row",")!} ~",")!} =\\","text up","}, ~","ĠB A","ĠC D","ĠC x","12 7","12 79","Ġu t","Ġu se","Ġq y","Ġs L","De t","Ġc irc","Ġc ef","Ġc ubic","ĠP F","ĠP V",")}} ~",")}} )}","Ġ4 4","Ġ4 5","Ġp q","Ġp os","Ġp otential",")] ^{","))} ,","))} ^","))} -(","Ġ5 12","Ġ5 68","Ġr ecursive","}+ (\\","}+ |\\",")!! /(","16 7","16 384","or der","100 00",")| )^",")| ^{-",")| )}{",")| }}{","}\\, (","ĠG aussian","... (","Ġv u","Ġv ector","Ġv alu","ĠL e","Ġ7 0","at ed","))}{ (-","))}{ |\\","\\{ |","Ġ... }{","ĠR C","ĠR iemann","]} |","\\} >","\\} *\\","ij kr","ij kl","})}{ |","'' -","'' \\","'' ')","})) /","Ġ[ -\\","11 568","\\!\\ !\\","20 16","20 21","20 78","50 00",")}}{ |","ĠE uler","]^{ (\\","15 6","24 3383279502884197169399375","an kel","un d","17 9","Ġ9 45","ik r","ik t","nt i","^- }}","xz y","xz z","Ġthe ir","]_ +","^* )","^* (-","ac tor","Ġ~ (","))^{ (\\","]= (","Ġdv d","}] -","}] |_{","}| |\\","72 8","ib niz","48 26","ve d","ve rge","}}- (-","Ġxyz e",")_+ ^{-","84 27","Ġex ample","Ġad fg","Ġae I","Ġae ic","Ġae if","as ymp","54 321","}' |^","}' |/","|| _","}\\!\\ !","40 00","({ -\\","Ġis h","Ġin x","768 11568","26 2","26 25","78 16","Ġco nt","Ġcom plic","ime nsion","Ġcd H","\\; (","hy perbolic","Ġbf dg","79 2","'''' ''","Ġtheor y","Ġinteg ration","56 7","38 9","86 1","Ġintegral s","Ġor dinary","39 687","Ġdsdt du","''' +","Ġdiffere nt","La urent","Ġcosec h","Ġbdg fi","pe rgeometric",")' =\\","1105 14",")|+ |\\","Ġra te","Ġhy perbolic","lt i","Ġlog arithm",")}\\!\\!\\ !","Ġreg ression","{[- (\\","Ġroot s","Ġharmon ic","5772156 649","518 4","Lo g","Ġfind ing","Ġcs c","Ġmo du","14159 265358979323846264338327950288419716939937510","693147 15","Ġresp ect","Ġsequen ce","2104 76811568","Ra phson","rame tric","Ġtrans formation","Ġgrow th","1279 4826","Ġuse d","Ġvalu e","Ġcomplic ated","210476811568 12794826","21047681156812794826 243383279502884197169399375","! !","! ]","! (\\","! }^{","! ^\\","! !}","! ))^","! ]^","! )}+\\","! })^{(-","' /","' |","' ^{-","' }}","' {(","' }^\\","' }(\\","' }{(","' }}\\","' _\\","' ))^","' ))}{","' })}{","' )|}","' )}{|","( ^{","( {\\","( +\\","( (-\\",") ]{",") '}","* =","* (-","+ )","+ [","+ )+","+ ...","+ }^{-","+ ~\\","+ }^{(-",", (",", ~~~~\\","- )}{","- ...",". (","0 3","0 14","0 47","1 12","1 104","2 98","2 148","3 50","3 24","3 81","3 14","3 72","4 4","4 64","4 50","4 40","4 39","4 65","4 37","4 389","5 2","5 3","5 10","5 11","5 64","5 14","5 21","5 38","5 80","5 349","6 20","6 18","6 32","6 17","6 81","6 19","6 36","6 96","6 75","6 00","6 57","6 79","6 56","6 759","7 3","7 7","7 16","7 17","7 07","8 2","8 84","8 37","8 179","9 28","9 57","9 646",": ~","; (","= (\\","= {(","A R","A d","A p","A r","A ck","A ir","A nti","B E","B P","B e","B s","B u","B in","B ess","C C","C S","C t","C os","D P","D Q","D u","D ar","E G","E I","E f","E h","E quation","F D","F g","F rac","G aus","G reen","H e","H i","H Ã","J K","J ac","K T","L G","L x","L er","M N","M e","M o","M u","N h","N q","N z","P a","P h","P i","P oisson","P BP","R ad","R ec","S C","S to","S ch","S pherical","T D","T L","T Q","T c","T h","T i","T s","T ransfer","V e","X i","Y f","[ ,","[ ]{","[ |\\","[ ~_","\\ {(","\\ {(-","\\ })\\","\\ }_","\\ }}(","\\ }}+\\","\\ |}","\\ |=","\\ })},","] /","] ~","] (\\","] })","] }{(","] )}{\\","] )(","] )-","] )_","] )}{(","] )=","] }}{(","] )]","] )+\\","] /(","] '_","^ +\\","^ ...","_ +}","_ *(","_ -}","a I","a J","a a","a h","a w","a le","a su","a sinh","a cx","a ve","a Ei","a he","b I","b u","b cos","b eg","b ax","b cx","b ic","b ni","b zq","c J","c g","c r","c dx","c fg","c ate","d F","d n","d in","d om","d ar","d ih","e ig","e ns","e nd","e ih","f inition","f actor","g i","g p","g y","g ular","g Ef","g Hi","h X","h l","h p","h kt","h lk","i M","i N","i R","i la","i cosh","i el","i an","i wt","j D","j T","j a","j b","j o","j p","j q","j t","j z","j ct","j ect","k G","k M","k X","k g","k xy","k es","k kx","l G","l M","l T","l b","l x","l mn","m Q","m h","m w","m vr","n D","n K","n l","n v","n th","n to","n dy","n dz","o f","o th","o dot","o nu","o us","p to","p Ei","p oly","q D","q k","q n","q p","r d","r row","r st","r ect","s D","s X","s a","s m","s ty","s la","s ys","s pace","t I","t S","t l","t dx","t xx","u L","u rt","u to","u pa","u it","u ous","v n","v u","v al","v dx","v pha","v ing","w z","x G","x H","x c","x d","y d","y k","y r","y u","y v","y Ai","z d","z bar","{ }}","{ {(","{ )}_{","| {\\","| }(\\","| )(","| )-","| ))}","| })^","| /\\","| ))}{","| ))+\\","| )}-\\","| }=","| })+\\","| }}}{\\","| )}{|\\","| }-(","| }))-","| )-(\\","| }+|\\","} !","} )!}{(","} ^{-(","} }^{+\\","} )!\\","} ]_{","} <\\","} >-","} !)^{","~ (\\","´ pi","Ġ )\\","Ġ }^{","Ġ sq","Ġ lim","Ġ ^{\\","Ġ theta","Ġ ph","Ġ )}{\\","Ġ mb","Ġ },","Ġ )\\,","Ġ )^{-","Ġ )+\\","Ġ }(-","Ġ )}-\\","Ġ line","Ġ }{(\\","Ġ ~\\","Ġ ^{(-","Ġ )}}{{","Ġ length","Ġ ampl","Ġ law","Ġ\\ !","Ġ\\ !\\!","in h","in j","in rel","in side","in uous","^{ +\\","^{ ...","^{ *}\\","le c","le s","ra ble","_{ ,","_{ (\\","_{ (-","_{ +}^{\\","(\\ {\\","is u","is cate","is inh","ig f","ig ec","}\\ })","}\\ },","}\\ }_{","}\\ |)","right har",")^ +","{\\ |","Ġx s","Ġx v","Ġx w","Ġx zw","os h","ta t","Ġ( {","Ġ( (-",")\\ }\\",")\\ }_",")\\ }=\\",")\\ \\\\",")\\ !\\!\\",")\\ |_",")\\ |^{-",")\\ |}{\\",")\\ !\\!","Ġ+ }","Ġ+ (-","}^{ (-\\","}^{ [(","}^{ *}\\","cos t","Ġ- {\\","Ġ- [\\","Ġd n","Ġd o","Ġd imension","ma in","ma ting",")} *",")} .",")} :",")} ^\\",")} )}{\\",")} )^{\\",")} )}}",")} ))}",")} ]^",")} ))\\",")} )}-",")} )}\\,",")} )}{(\\",")} }}-\\",")} )}}+\\",")} ]=\\",")} |-","}^ !","}^ +(","}^ -(","}^ +)","}^ -)}{","Ġe qu","Ġe lec","am n","to tic","to tal","tan dar","}} .","}} ))","}} }^\\","}} ,\\","}} _\\","}} )+","}} )\\,","}} ),","}} )-\\","}} /\\","}} |}","}} ]_{","}} -(","}} }\\,\\","}} )))}","}} )(-","}} }}=\\","}} *\\","}} }}{{\\","}} )^*","Ġdx dx","Ġdx dz","}^{\\ ;\\;\\","Ġy h","Ġy v","Ġy y",")) ~",")) ),",")) ^{-(",")) )|",")) ^{(",")) ))}{",")) )}}{",")) )}=",")) )))}",")) )](",")) )]^",")) ))^\\",")) ]-",")) ''''",")) |-\\",")) )]=",")) |+|\\",")) _+",")) *(-","Ġk C","Ġk P","Ġk Y","Ġk a","Ġk m","Ġk p","Ġk r",")! })",")! }\\,",")! !\\,(",")! /[(","}( )","}( [\\","}( |\\","pa ss","Ġ\\, \\,","Ġ\\, {}_","Ġt F","Ġt J","Ġt cos","Ġt ext","math sf","Ġn B","Ġn P","Ġn b","Ġn f","Ġn h","Ġn s","Ġn ot","Ġn ega","Ġn yx","Ġn ormal","]{ [","}) '","}) }^{","}) [\\","}) |\\","}) =-\\","}) ]^","}) |}","}) ]=\\","}) )}}=","}) |-\\","}) ||_","Ġ1 12","Ġ1 15","Ġ1 32","Ġ1 25","Ġ1 75","Ġ1 90","Ġ1 98","Ġ1 95","Ġz f","Ġz u","Ġz w","pro pto","Ġ2 48","Ġ2 62","bf d",")( -\\","[\\ ,",")}\\ !",")}\\ ;",")}\\ !\\","}}{ -\\","}}{ =\\",")^{ {",")^{ |\\","de n","de formation","qu en","xy t","xy w",")- {\\","arc sec",",\\ ,","Ġi Y","Ġi j","Ġi r","Ġi Beta","ab s","ab ce","ab ef","ĠD u","ĠD v","ĠD x","ĠD CD","!} ~","!} )}","!} }{\\","!} [-","!} =(-","det erminant","it ial","it ive","it ies","Ġb h","Ġb j","Ġb u","Ġb essel","Ġb ef","=\\ {","10 95","_{\\ {","_{\\ |","nu mber","er es","er ivative","er ror","Ġ3 1","Ġ3 27","Ġ3 36","Ġ3 00","Ġ3 875","(- {","(- (\\",")!} =(","ec ew","text normal","!\\ ,\\","}, ...","ĠB in","ĠB eta","ĠC z","ĠC ov","ĠC ap","ĠC har","ĠC FG","ĠC osh","ĠI y","ĠI JK","mu te","12 3","12 19","12 96","12 34","Ġu g","Ġu w","co v","Ġq D","Ġq z","Ġq abcd","ĠA C","ĠA M","ĠA EI","ĠA FD","Ġs h","Ġs ol","Ġs ome","Ġs imple","Ġs pherical","Ġs ampl",")^{\\ !\\",")^{\\ !\\!\\!\\","De finition","Ġc L","Ġc j","Ġc dA","Ġc ub","Ġc gEf","Ġc abef","Ġh X","Ġh g","Ġh k","Ġh q","Ġh kl","ĠP e","ĠP oisson","ĠP AR","ĠP DP","), -","), :","), ~~","), ~\\","), ~~~","Ġ4 2","Ġ4 6","Ġ4 25","Ġ4 39","Ġ4 87","Ġp y","Ġp xt","Ġp yt","Ġp osition",")= =",")= (-\\",")= ||","Ġ} }{\\","})\\ }","})\\ |\\","})\\ ;\\","})\\ }]","})\\ }]^",")] ,",")] _",")] )\\",")] }}{(",")] /\\","Ġj m","Ġj kn","))} }{(","))} (-","))} )+\\","))} ))-\\","))} }{|\\","Ġ5 40","Ġ5 46","Ġ5 83","Ġr z","Ġr st","})^ *=","})} ~","})} (\\","})} )}","})} }\\,","})} )}}\\","})} =-","})} }}=","Ġm B","Ġm S","Ġm i","Ġm s","Ġm t","\\, (\\","\\, }\\","cs e","Ġdz dydx","/\\ !\\","]^ *\\","))\\ ;\\",")!! ,",")!! }(",")!! }(\\",")!! }(-",")!! }{(\\","16 17","16 46","or k","or din","st n","}_ +","bx e",")| -",")| =",")| |",")| ^{",")| }}",")| })",")| )^{\\",")| )-\\",")| /\\",")| )^\\",")| ))}\\",")| >\\","Ġw ave","Ġw ork","ĠG ol","ĠG reen","nx e","Ġ6 2","Ġ6 8","Ġ6 9","Ġ6 16","Ġ6 25","Ġ6 00","Ġ6 8576","Ġv v","ĠL C","ĠL t",")}( |","ĠH ankel","Ġ| _{\\","Ġ7 8","Ġ7 9","Ġ7 00","!}{ [","!}{ {(","at es","at io","27 3","27 521","bs e","ck sla","}}} .","}}} ~\\","))) ~","]\\ }\\","Ġ... }}}","Ġ... }}}}","ĠR atio","]} }^{","\\} ]","\\} ^{-\\","\\} |-","Ġdu d","Ġdu dt","var iat","'' }{","'' _{","'' (\\","'' )^","'' \\!\\","'' '''(","dz d","dz dw",")!\\ ,\\","})) (\\","})) )\\","})) )}{\\","})) )+\\","})) )}=\\","xyz e","11 85","Ġxy G","},\\ ;","},\\ \\","20 2","64 3","64 78","64 756","64 41","ds dy",")}}{ {{","^+ ,","^+ }{\\","^+ )=","iy i","Ġ8 5","Ġ8 40","}= +","}= [","15 8","15 25","_{- }^{-\\","|} )\\,","el y","24 6","24 70","24 769","mn yz","mn iscate","})^{- (-","!}{( (","Ġo ne","an ing","|_{ |\\","ĠT r","32 9","}; \\,","))= -",")!!} ,",")!!} -(",")!!}{( (","Ġdxdy d",")}= (",")}= -",")}= :",")}= (-","dxdy d","iz x","iz ation","iz ing","+( |","17 8","17 35","17 29","17 69","17 273","13 3","13 95","Ġ9 0","Ġ9 01","xx xx","ik y","ĠQ DQ","nt s","81 9","14 28","14 34","^- }{","^- }^","^- }{\\","19 8","19 9","19 63","19 83","19 510","|= |","ĠV I","ĠV ar","Ġl k","iv ale","iv ely","99 38","99 80",")}, ~~~",")}, ~~\\","25 5","25 59","25 92","25 8179","25 1185","ĠZ eta","ĠN ewton","Ġ10 4","Ġ10 80","li er","\\\\ (","\\\\ \\","vec tor","}}) }^{","}}) _\\","}}) =-\\","^* ,","^* \\","^* _{","^* _{\\","^* _\\","^* ),",")> \\","jk l","Ġ12 1","Ġ12 9","22 8","], [","], }","], ~~~","arg max","il k","Ġ~ _","Ġ~ |","))\\, |","68 2","68 3","68 24","68 75","68 79","68 27521","23 04","}/ {","}/ [(","]= (-","}] =\\","}] |_","}| )","}| :","}| <","}| }{","}| )\\","}| )-","}| ^{-(","}| ))\\",")))} )+\\",")))} ))))","^{-| (","^{-| |\\","Ġdw du",")))) ))}{",")))) )))","45 1","45 927","45 536","200 0","36 1","36 28","96 7","96 76","75 4","}}}{ |\\","28 128","28 251185","re quen","48 38","48 627","pli ed","ve e","30 72","30 28251185","yy y","}}, -\\",")_+ ^{-\\",")_{ (","84 6","84 67","}~ _","}~ }{","}~ {\\","}~ -~\\","}~ +~\\","Ġae j","Ġae fg","Ġae fG","uv t","sim ila","54 6","54 05","}))} }}{","}))} }}}","})= (","})= (\\","})= (-","})+ (\\","}' |-","}' |)}{","),\\ ,","49 2","49 7","49 32","Ġnx n","cu bic","35 1","35 7","35 17","35 864","76 59","76 795","76 54321","76 716","76 2559","90 6","90 7","90 9","90 72","90 78","90 3125","az q","Ġdk dl","Ġ16 9","Ġ16 20","Ġbd ge","Ġbd Ge","Ġbd Fg","Ġbd igec","|< +\\","128 212","ple te","Le ibniz","Ġin side","Ġin put","Ġin determinate","Ġin itial","ive n",")~ \\,",")~ -~\\","120 584","))}} =\\","zw x","})}{( |","26 30","Ġsin c","Ġsin us",")})} )\\",")})} )}",")})} }}","): ~",")\\} ]^","00 2","00 6","00 47","00 884","78 125","78 57","78 86","78 76795","}), (","Ġcom mute","cd f","cd i","98 5","98 7","98 97","98 627","98 7654321","Ġint eres","Ġ15 2","Ġ15 6","Ġ18 2",")|} *\\","})}} )}}{","Ġcd hi","Ġcd ih","(; -\\","\\; {","hy per","Ġ24 3","Ġexpression s","29 54","tion s","34 4","34 6","34 759","34 784","57 7","57 24","57 846","69 2","69 75","69 1525","Ġab e","Ġ}}{ {(","'''' )","59 4","59 47","38 0","\\| _{\\","\\| _\\","]+ |\\","|, }","86 7","86 96","86 29","86 539","}}}} ,\\","per ty","}}^{ }","Bessel I","65 859","bd i","he ight","}_{\\ !","ition s","37 361","512 903125","bo ux","'}) |^","ih g","po onu","po les",")}{| (","Ġconstan ts","}}+ ...+\\","Ġtransform s","))/ (\\","me asu","me aning","105 861","},~~~ |","74 49","out side","Ġceg f","Ġceg h","Ġre al","di cal","iu y","Ġac eg","Ġac fh","Ġ30 6","Ġ30 225","756 23","/[ {","dg ib","nq q","|)+ (\\","ist ic",")},\\ ;","Ġ{{ {(-","Ġbdg h","Ġdenot e","07 7","43 7816","43 9897","ba cksla","Ġpro perty","are a","Ġce igf","1728 0","){ }^!","05 258179","\\}) :=\\","|}, ~~~~\\","com es","com plete","iw x","sta te","Ġ35 534","âĨĴ \\","764 1","764 8","764 451","ch Phi","Ġra tional","Ġra dical","Ġdis crete","Ġeve nts","}}~ (","Ġkh q","Ġch arge","Ġhy pergeometric","Ġrdr d","ĠaeF I","Ġbdfg h","env alu","Ġcoefficient s","Ġoscilla tions","984 375","984 9646","Ge ometric","Ġze ro","}))}}} }{(\\","!/ (\\","076 968","854 10","945 86","LC G","LC M","xxt t","Ġlog istic","Ġaf dgib","Ġreg ular","Ġ768 0","689 34","Ġdudvdw d","Ġcdg i","Ġcdg hf","718281828 46",",: }",",: }\\","875 46","927 75",":=\\ {(","Ġpi ecew",")\\! /\\!\\","Ġap proxi","Ġap plied","Ġharmon ics","Ġrs K","Ġout put","Ġout comes","Ġceh gf","arithm ic","08 7449","212 35864","218 5","349 8756","427 1219","8576 9","954 9","In verse","In determinate","io ta","ll x","normal izing","})! +\\","Ġpa ra","Ġpart itions","Ġmu lti","Ġ\\{\\ ,","))_{ +\\","]{... }^{","]{... }}}","Ġ34 45927",")+... -(","Ġcf eih",")|, |\\","}'|}}{ |\\","Ġbdf Eh","Ġinvol ved","Ġinvol ving","Ġcon verge","7182818284590 23","0489 756","Ġinvers ive","469 52","578 6","976 67","Co sine","Fib onacci","wart z","Ġle mniscate","Ġth at","Ġim ky","integ ration","Ġ135 2","ĠCD I","127 05258179","Ġcirc uit","Ġcef ihg","Ġ44 76","Ġpos itive","167 34784","2078 795","8427 07","Ġadfg i","Ġaeif i","262 144","2625 3","Ġcont inuous","Ġdsdtdu d","Ġdifferent iable","110514 321","Ġmodu lation","69314715 4271219","Ġrespect ively","21047681156812794826243383279502884197169399375 105861","324 97","381 9938","511 71","538 45","580 16734784","620 437816","636 620437816","657 3498756","928 78","Ad j","Ar g","Air yAi","Anti derivative","Bess J","Dar boux","Frac tional","Gaus s","HÃ ´pi","Ler chPhi","MN M","Me an","Pa rametric","Sto kes","Sch wartz","Th eta","Ve rt","^... }}","ahe id","beg in","eig envalu","jo inrel","nto m","oth er","poly log","urt h","upa rrow","val id","vpha ntom","|)( |","Ġsq u","Ġlength y","Ġampl itude","^{... }}}","righthar poonu",")\\!\\!\\ !\\!\\!\\",")\\|}{\\ |","Ġequ ivale","tandar d","}})^* }\\","}^{\\;\\;\\ ;\\","Ġnega tive","Ġ198 0","Ġ195 58016734784","Ġ262 144",")^{|\\ {","Ġbessel j","Ġbef i","Ġ327 68","Ġ336 00","ĠCap uto","ĠChar lier","Ġsol ution","Ġsampl ing","ĠcdA gHi","Ġcub es","ĠcgEf D","Ġ425 440","Ġ546 1","Ġ583 200","1646 27","ordin ates","ĠGol den","variat e","64756 56","2470 692","mnyz w","1735 909","1769 6824","1428 6","1434 107","1963 497",")},~~~ _","6879 43","45536 2148","28128 014","requen cy","4838 5","48627 12705258179","simila r","5405 128212","762559 75","9078 5405128212","ĠbdGe C","120584 90785405128212","0047 985","00884 66","7857 14286","7876795 6475656","Ġinteres ting","691525 4862712705258179","measu rable","439897 455362148","backsla sh","Ġ35534 320","Ġregular ization","Ġpiecew ise","Ġapproxi mating","Ġoutput s","21235864 1735909","Ġ3445927 60","21047681156812794826243383279502884197169399375105861 12058490785405128212","3819938 28128014","636620437816 46952","6573498756 17273","HÃ´pi tal","eigenvalu es","rightharpoonu p","Ġequivale nt","Ġ19558016734784 6915254862712705258179","2104768115681279482624338327950288419716939937510586112058490785405128212 3028251185","Ġ195580167347846915254862712705258179 512903125","! ^{\\","! !\\","! )-\\","! ...","! }}+\\","! )!}\\","! })^{-","! })(","! )}+","! !}}","! )^{(","! ))^{(-","' m","' ~","' -\\","' }-","' |\\","' )}{(","' })\\","' )]","' )=\\","' ))\\","' |^","' };","' +(","' ]}\\","' ]}}","' ]}-\\","( ^{-","( (-","( .,",") [\\",") <\\",") )}}+\\",") [-","* :","+ }\\","+ )}","+ }^","+ )}{","+ ),","+ }}}","+ )}(\\",", _",", |",", ~~","- {","- [\\","- [(\\",". )",". +\\","/ (-","0 6","0 9","0 16","0 15","0 22","0 96","0 84","0 384","0 92","0 67","0 61","0 792","1 101","2 10","2 64","3 64","3 18","3 36","3 54","3 169","4 24","4 99","4 45","4 75","4 29","5 8","5 27","5 20","5 15","5 32","5 17","5 48","5 29","5 729","5 89","5 997","5 894","5 21047681156812794826243383279502884197169399375105861120584907854051282123028251185","6 64","6 99","6 72","6 78","6 98","6 144","6 59","6 38","6 39","6 65","6 37","6 180","6 54321","7 14","7 48","7 49","7 90","7 98","7 320","7 300","7 359","7 7816","8 8","8 22","8 35","8 98","8 57","8 69","8 79","8 56","8 86","8 97","8 74","8 83","8 294","9 64","9 36","9 756",": (-","< -","< {\\","< |\\","= }\\","= [(","> |","? }{\\","A c","A m","A n","A q","A ss","B g","B AB","B kt","B as","C E","C a","C r","C u","C AB","C as","C he","D G","D x","D y","D ir","D kt","D iff","D iffere","D erivative","E B","E r","E t","E z","E rf","F x","F res","F inite","F requency","G D","G F","G i","G o","G en","H A","H f","H ankel","I U","I nt","J a","J s","J ens","K G","K H","K a","K n","K u","K ine","L p","L s","L im","M a","M z","M at","M as","N R","N e","N y","N on","N ik","O r","P Q","P o","P ro","P as","P en","P olynomial","P eriod","P ower","Q u","R x","R ecursive","R iemann","S D","S E","S t","S pa","S ec","S ine","S te","S tandard","S NR","S SE","T C","T J","T X","T f","T o","T rans","T BA","T Ax","V D","V F","W H","[ ^{","[ {\\","[ {}_","[ ;-","\\ :","\\ }^","\\ }}\\","\\ ;\\","] :","] [","] !}","] }-","] }}\\","] _\\","] !\\","] )\\,","] ^{(","] ))}{","] }}+\\","] }{(-","] |^{","] *\\","] }^{(-","] |}{","_ +\\","_ +(","_ -(","_ -)","a j","a cos","a cosh","a ab","a ction","b h","b in","b ys","b dx","b er","b es","b st","b and","b abi","b ject","c p","c frac","c es","c ess","c ula","c cu","c zx","c ing","c ay","c he","c iat","d R","d c","d m","d p","d amp","d imension","e I","e h","e u","e ro","e ad","e un","e nt","e ze","e ber","f y","f dA","f unction","f set","f dg","f und","g h","g j","g k","g x","g at","g iven","h j","h am","h es","h kl","h armon","h XF","i B","i D","i X","i ro","i dy","i cal","i du","i tal","i maginary","i quadratic","i PV","i angle","j f","j kx","j nt","j ac","k D","k H","k dy","l S","l r","l u","l v","l le","l ing","l se","l Vert","m T","m j","m er","m kx","m et","m pq","m df","m me","m erical","n J","n R","n w","n cos","n xy","n er","n kx","n kn","n if","n tal","o ra","o dy","o ds","o und","o urth","o ordinates","o ciat","p f","p os","p dt","p qx","q V","q a","q g","q i","q pq","r c","r q","r w","r su","r ose","r it","r ix","r Vert","s K","s Y","s o","s yz","s ystem","s tandard","t U","t g","t i","t q","t xy","t ransform","u c","u e","u du","u me","u lse","v s","v yt","w e","w n","w ise","x K","x P","x a","x qt","x pone","y Q","y a","y cos","y math","y dy","y dA","z b","z yx","{ ,","{ )}","{ }(","{ }^{-","{ [(","{ ?}{\\","| ]","| ~","| )!","| }{(","| )!}","| )^{-","| =-\\","| )=","| )!}{(","| })}","| )}(","| )}+\\","| )^\\","| )}}{","| }}+\\","| )}-","| }{(\\","| ))=","| )\\,\\","| }}-\\","| }\\,\\","| )/\\","| |)","| )))+\\","| {{","| )(-","| ))}{(\\","| }))-\\","| })}}{","| {}^{-","} &","} :","} <","} Â","} ...","} _{-","} ''(","} )!^","} ],","} |_{(","} >\\","} ...}","Â ±","Ġ Ġ","Ġ pla","Ġ displa","Ġ )^","Ġ )}","Ġ }(","Ġ pha","Ġ lo","Ġ limits","Ġ arctan","Ġ _\\","Ġ ps","Ġ coth","Ġ over","Ġ ine","Ġ ]_{","Ġ sup","Ġ arctanh","Ġ Â±","Ġ\\ }}","Ġ\\ }(","Ġ\\ }(\\","Ġ\\ !\\","Ġ\\ },","Ġ\\ |_","in z","in kx","in ky","in complete","^{ +","^{ +}(","}{ }","}{ {(","ra ph","ra mid","la n","la tive","(\\ |","(\\ |\\","is ed","ys in","ig h","ig ital","}\\ |\\","}\\ })}{\\","}\\ |/\\","sin es",")^ -","^{- [","^{- {","^{- }(","^{- }(\\","^{- }}\\","^{- [(","^{- }}}{","Ġx D","Ġx H","Ġx R","Ġx h","Ġx n","Ġx dy","os tat","ta lan","Ġ( *:",")\\ })",")\\ |^",")\\ }[",")\\ }^{(",")\\ !\\!\\!\\","Ġ+ ...+","su cc","su bject","}^{ '}(","Ġ- (-","Ġd D","Ġd L","Ġd c","Ġd e","Ġd l","Ġd p","Ġd amp","Ġd igital","ma trix",")} _",")} }^{\\",")} }(\\",")} )(",")} _{\\",")} ^{-\\",")} ),",")} }\\,",")} ...",")} )}(",")} }}}",")} )^\\",")} )}-\\",")} |_{",")} ]=",")} ))))",")} },}","-\\ !","-\\ {","Ġe s","Ġe y","Ġe xe","Ġe lliptic","Ġe nv",")}{ -","+\\ \\","+\\ {","th ing","im n","am x","al yt","al ity","al cula","tan ge","tan gular","ot ion","}} *","}} ;","}} ]","}} ^{-","}} }^{\\","}} )}\\","}} )-","}} },","}} ^{-\\","}} =-\\","}} }}{\\","}} ))}","}} }_","}} )}+\\","}} ))+\\","}} ]}","}} )}-\\","}} +(","}} }}-\\","}} ;\\","}} }}}{","}} }}-","}} }}=","}} }}}\\","}} |)}","}} |)}{","}} }}{{","Ġdx x","Ġdx xy","}^{\\ ;","Ġy g","Ġy n","Ġy dx","Ġy xe","Ġy zx","Ġf d","Ġf k","Ġf s","Ġf z","Ġf actor","Ġf iel","Ġf requency","{( {","{( |\\","om er","om or","om en","om plex",")) }^{",")) )(",")) !\\",")) =-\\",")) |^",")) !}{(",")) )}=\\",")) ]_",")) )})",")) +(-",")) )}{|\\",")) )^{-(",")) ]+",")) )=-",")) |\\,",")) ]_{|","Ġk F","Ġk b","Ġk e","Ġk g","Ġk i","Ġk k","Ġk no",")! =",")! )}",")! }^",")! +\\",")! !)^",")! /\\",")! }}}",")! ]^{",")! )}^",")! =(-",")! ~(","}( {","}( (\\","pa gat","Ġt A","Ġt D","Ġt e","Ġt g","Ġt race","Ġt ransfer","Ġt ens","dx e","dx dsdt","Ġn D","Ġn i","Ġn ty","Ġn xe","]{ {{\\","ro l","ro ni","ro und","}) ^{(","}) )}+\\","}) ]}","}) )}-\\","}) )}{(\\","}) +(-","}) |)","}) ]\\,","}) |^{","}) )}}}{\\","}) ,\\;","}) ]_{|","}) ]\\}","}(\\ {\\","Ġdt du","Ġdt dydx","Ġ{ }^","Ġ{ -\\","Ġ{ {(-","Ġ1 50","Ġ1 30","Ġ1 97","Ġz D","Ġz P","Ġz n","pro ac","}{( |","Ġ2 2","Ġ2 10","Ġ2 24","Ġ2 36","Ġ2 30","Ġ2 65","Ġ2 89","Ġ2 405","ar x","ar ed","Ġa k","Ġa q","Ġa eg","Ġa sy","Ġa gj","Ġa round",")( {\\","ge nd","ge nb",")}\\ }",")}\\ !\\!","}}{ -","}}{ [(","}}{ {{","}}{ =}\\","de l","de cay","qu ist","qu ality","ad ing","ad ratic",")- (-\\",",\\ ,\\",",\\ ,\\,","dt dy","log arithmic","Ġi G","Ġi P","Ġi V","Ġi p","Ġi w","Ġi yt","Ġi tx","Ġi jk","Ġi ut","Ġi ts","ab t","ĠD g","ĠD erivative","!} /","!} )\\","it ution","Ġb a","Ġb n","Ġb s","Ġb cot","Ġb xi","Ġb xe","Ġb as","Ġb gf","Ġb gd","Ġb ound","10 678","}- [","er ion","er ized","er ved","er omor","Ġ3 68","Ġ3 65","Ġ3 92","(- [","(- )}","ĠF orm","ĠF iel","ĠF ourth","eg ral","Ġg t","Ġg xy","Ġg iven","Ġg raph",")!} }{\\",")!} =-\\","}, ~~","op lus","Ġ(\\ \\","era te","ame ntal",")+ |",")+ |\\","ĠB W","ĠB f","ĠB ru","sec ond",")_ -",")_ +\\","|\\ ;","|\\ }",")}{( |","'( |","ĠC C","ĠC X","ĠC t","ĠC xy","ĠC or","ĠC art","ĠC DE","ĠC alculus","ĠC oordinates","ĠC omplex","ĠI m","phi c","mu lative","12 4","12 756","Ġu r","xt u","co f","co bi","co rr","co factor","Ġq b","Ġq Am","ĠA D","ĠA b","ĠA c","ĠA t","ĠA u","Ġs C","Ġs e","Ġs f","Ġs ymbol","Ġs our","Ġs tat","De ut","Ġc ge","Ġc arg","Ġc hf","Ġc fg","Ġc iG","Ġc rit","Ġc alcula","ĠP Q","ĠP art","ĠP SD","), -\\",")}} .",")}} ]",")}} _",")}} _{",")}} ))",")}} )}-",")}} ,\\;","Ġ4 1","Ġ4 3","Ġ4 7","Ġ4 27","Ġ4 17","Ġ4 21","Ġ4 76","Ġ4 90","Ġ4 63","Ġ4 91","Ġ4 707","Ġp A","Ġp oint","Ġp ulse",")= [",")= |\\",")= {}_","}}{( (","es er","es ian","ĠS ystem","))^ (","Ġ} |\\","})\\ ;",")] -\\",")] ^\\",")] }}",")] _{-\\",")] }{(","Ġj Y","Ġj b","Ġj c","Ġj h","Ġj k","))} )\\","))} )}\\","))} }-\\","))} ))}{","))} ))}\\","))} )|_{","Ġ5 7","Ġ5 19","Ġ5 72","Ġ5 84","Ġ5 120","Ġ5 92","Ġ5 07","Ġ5 39687","Ġ5 856","Ġr h","Ġr ecurs","Ġr ip","Ġr Ap","})} (","})} .","})} +\\","})} }-\\","})} (-","})} )-\\","})} ))}{","})} }{(\\","})} -(","})} })+","})} }{|","})} ))}}","})} ~(","Ġm g","Ġm h","Ġm odified","Ġm otion","Ġm eromor",")!! ^{-",")!! (-",")!! ]^","16 20","16 23","16 35","16 79","16 74","16 43","16 315","Ġds dy","or e","st u","st cos","st ead","dy dy","dy dz","bx z",")| /",")| >",")| ^{\\",")| }(\\",")| =\\",")| }-\\",")| )}{(",")| ),",")| )}}",")| }+",")| )+\\",")| |^",")| }}}",")| }=",")| )}-",")| }{(\\",")| )}\\,",")| }~\\",")| +|",")| -|\\",")| }}{((","^{( |\\","^{( +)}(\\","Ġw e","Ġ6 1","Ġ6 7","Ġ6 64","Ġ6 28","Ġ6 40","Ġ6 59","Ġ6 91","... =\\","Ġv x",")}( |\\","ĠH ef","ĠH yperbolic","ĠH eun","Ġ| _","Ġ7 12","Ġ7 72","Ġ7 35","}(- |",")/ [\\","27 86","bs erved","))}{ -","ne lS","}^{- }}{","\\{ -","))) ^{-\\","))) )}}","]\\ !\\","Ġ... }\\","Ġ... )^","Ġ... )}","Ġ< =","ĠR L","!}\\ ,\\","\\} )}{","\\} ;\\","\\} |)^","\\} ;-\\","Ġdu e","on al","on se","ij n","var iable","var ian","'' }","'' )}-","'' '-","dz dy","dz dydx",")!\\ ;(","})) .","})) _{","})) )}","})) ^{\\","})) =\\","})) )}+","})) )|}","})) ^{(-","Ġ[ _{","Ġ[ (\\","Ġ[ (-","11 4","11 86","11 428","Ġxy e","},\\ ,","20 17","20 14","20 25","20 48","20 736","64 0","64 5","64 7","64 84","64 49","64 31","64 98","64 357","50 4","50 25","ds dx","ds dq","^+ (","^+ }^{","^+ ))","ĠE y","ĠE z","ĠE yz","ĠE quation","ĠE rf","ĠE xpone","Bigg m","Ġ8 2","Ġ8 75","Ġ8 91","]^{ }","tr y","tr iangle","tr ostat","15 4","15 7","15 45","15 625","15 41","_{- }","_{- }(","ct iv","ct nh","gn itude",")!}\\ ,\\","|} =\\","|} ~\\","ĠM C","cx xy","18 6","18 14","18 75","18 764","18 359","18 521047681156812794826243383279502884197169399375105861120584907854051282123028251185","line ar",")}- |\\","24 0","24 13","24 520","ir ling","erfc i","mn op","})^{- {","du kt","du ctiv","!}{( [","Ġo ccu","Ġo bserved","^+} ~\\","an ge","an other","ĠT ransform","ĠT wo","ĠT aylor","32 8756","32 976","32 679","}; ~","Ġdxdy dw",")}\\, |",")}= ?","dxdy dydy","17 65","17 927","17 1617","13 0","13 1","13 7","13 8","13 36","13 87","13 41","Ġ9 7","Ġ9 8","Ġ9 31","Ġ9 60","Ġ9 53","Ġ9 504","') (\\","') ^{-\\","') '(","') >\\","xx xy","xx zz","ik z","ĠQ P","nt ral",")\\,\\ ,_","81 49","81 500","bc de","14 1","14 48","14 40","14 07","^- (","19 1","19 20","19 96","19 54","19 39","19 95","19 74","19 683","19 328756","|= (","ii d","ii i","ii iint","ĠV ector","ĠV ariables","ĠU nif","Ġl m","Ġl y","Ġl z","Ġl cm","99 999","99 1541","Ġof fset","})^{ (\\","{| |\\",")}, }","25 39","ĠN F","Ġ10 1",")}) _{",")}) (\\",")}) )}}","li ty","^* )\\","^* )}{","^* ))-","ac b","ac e","yz e","yz x","Ġ12 672","arg min","si c","si h","si ble","Ġ~ {\\","68 5","68 54","68 33","68 89","68 984","68 016","68 17927","23 0","23 1","23 7","23 415","23 1387","23 19328756","}/ (\\","}/ ((","}] (\\","}] ^{\\","}] }}{\\","}] }}}","}] }{|\\","}| -","}| )^","}| }}{","}| |^","}| |}","}| )}{|\\","}| |}{|",")))} }}",")))} }{(",")))} }}\\","Tr igonometric",")))) ^{\\",")))) )|_","45 3","45 99","45 38","45 89","72 96","200 3","200 7","200 9","}}\\, {{\\","96 56","96 984","96 6484","96 32679","96 7296","75 89","75 317","75 822","}}}{ {","}}}{ {(","28 0","28 80","28 97","28 95","28 05","28 750","re nce","48 35","48 37","48 73","48 77","48 835","}}- (\\","}}= (-","30 2","30 9","30 127","30 240","ce fdA","Ġbx dx",")* (",")* [",")* (\\","}}, ~~~","84 96","if D","nm ent","|) )}}","}~ |","min or","Ġex plic","Ġad j","Ġae fi","sim eq","!\\, {}_","54 0","54 7","54 9","54 76","54 79","54 389","Ġ27 6","Ġfor cing","}' }}","}' |}\\","}' )}{|\\","}' }{|\\","}' |>","}' |},","}' |}{|\\","}' |}\\,\\","49 1","49 8","49 44","]}{ [","|| _\\","})- (\\","}}}\\ ;\\","Ġnx u","]\\, _","35 97","40 95","40 62","40 4944","76 568","76 6449","90 8","Ġ16 0","Ġ16 384","Ġbd hi","Ġbd fh","Ġbd ch","Ġbd He","Ġbd GF",")!!}{ [(","|< (","|< (\\","({ {-","Ġis in","128 73","128 6498","Ġin verse","Ġin stead","120 6","768 515",")}(\\ {","!}} ,\\","en omen","{|\\ !","ABC D","dr d","dr ds","Ġ~~~ |\\","26 97","26 62","26 749","26 23415","kl m","Ġsin gular",")})} )})}","): =","): ~~","): =(-","Ġ\\| (",")\\} [\\","00 5","00 68","78 5","78 12","78 95","78 4599","us ion","Ġ) {","Ġco sine","Ġco ordinates","Ġco lu","Ġco sines","Ġco tange","Ġco varian","Ġcom pone","Ġcom pos","cd gh",")}}} +","98 159","98 7648","Ġ15 5","Ġ15 9","Ġ15 36","Ġ18 9","CA C","60 6","60 65","60 679","60 6817927","})}} =","})}} }{\\","_{[ -","Ġcd ig","Ġcd hf","dudv drds",")}^{ (-","hy pergeometric","})/ [(","Ġ24 178","29 68016","29 2897","ak c","dw dudv","Ġbf d","Ġbf di","Ġbf Gi","34 3","57 07","57 11428","rs e","rf ace","mp totic","69 1","69 19","69 28750","69 785","em ical","km g","79 512","79 424","bi us",")!\\, _","Ġ20 3","Ġ20 4","Ġ20 16","'''' (-","59 81500","59 685","Ġ64 7","). }","56 3","Ġbc DG",")!}, ~~~","~~~ |","38 88","\\| (","|, |\\","86 960","86 1448","|}} +","}}}} +","ur rence","BA CD","|> |\\","39 344","65 536","be rt","he v","Ġxz y","ĠBessel J","long leftarrow","37 48835","37 498","89 3","bo la","fo urth","Ġnu merical","Ġ14 1","(-| |\\","po rt","}^* -\\","^{(- )}(\\","169 58","BCA D","95 8","95 22","95 6478","Ġ36 6","Ġ36 2880",")< +\\","576 5","Ġme an","tric es","Ġdxdydz d","Ġdxdydz dwdudv","dxdydz d","dxdydz dV","Ġcdh B","Ġcdh g","74 17","74 6833","Lam bert","Ġma trices","Ġit erate","Ġceg bd","Ġre lation","Ġre action","pone nti","Ġmeth ods","tw o","Ġac egf","5772 16","46 664","46 714","Elliptic H","dg A","some thing","ist ics","))))} )","Ġ{{ {({","Ġbi variate",")^{\\! -",")|)) )(","Ġbdg E","Ġbdg f","Ġbdg i","'(- ,","07 7812","43 279502884197169399375","43 30127","ba sic","mm er","|/ |","Ġpro ble","Ġpro ject","Ġpro babi","Ġpro cess","Ġpro pagat","Ġ28 2","Ġan alyt","Ġce hi","Ġce HD","Ġce ifD","})}= {}","perbo la","05 18","05 167","05 4877","TB y","TB AB","\\}) <","au er","Ġdtds dr","bfg i","bfg hj","con verge","42 1643","67 3","864 2697","[{ }\\;","com position","ss band","Ġsum s","Ġsum mation","Ġter m","}}{{ }^","Ġsy mme","cdh Bg","Ce il","Ce ntral","TA y","ch ham","Ġra ised","Ġ25 987648","101 101","Ġch ange","Ġch emical","Ġhy perbola",")]] (\\","216 0","984 3","Ge I","Ge genb","do inverse","do main","gu e","}\\! -\\!","))' }^{","Ġtr iquadratic","Ġafg d","Ġafg i","Ġ50 4","ĠLa guerre","Ġ80 64","196 1","196 81","!/ [(","')} )]","568 517","568 874","854 7","LC s","Ġal so","Ġdef ined","Ġdef inite","Ġaf E","Ġaf Ge","Ġaf bgd","Ġaf He",")}\\!\\!\\ !\\",")=| (","Ġreg ion","159 18359","Ġcdg hB","Ġoscillator y",",: ]","04 49","70 25","70 746833","875 7359","Com bin","_+ )","cc c","cc ccc","py ramid","rr ing","Ġarg ume","Ġdi ag",")}}) )}-\\","Ġ19 683","Ġap proac","Ġident ities","Ġ40 3","Ġres idu","cyc le","cyc lic","427 894","427 191","518 76","784 25","94 99","Ex ample","Ex ponenti","GL B","GL BT","Lo w","]! _","]! !}\\","af igh","af GeI","}> -\\","Ġpa rametric","Ġpa ssband","!}+ ...=\\",")+... +(-","ĠBCD CE","Ġcf d","Ġcf eg","Ġcs ch","Ġmo del","14159 265","483 646","Ġcon volution","Ġcon ductiv","693147 1765","974 279","894 76568","894 427191","Ġbefg c","7182818284590 45","7182818284590 265358979323846264338327950288419716939937510","Ġresp onse","Ġaceh g","Ġsequen ces","Ġinvers es","Ġinvers ion","317 8547","469 18764","876 659","968 6","975 464","938 84","938 529","Co efficient","ag m","afg k","kw n","Ġle ading","Ġsu ch","Ġsu bst","Ġsu rface","Ġth ree","integ ral","proxi mation","Ġbg di","Ġbg GD","ĠFunction s","Ġcirc le","Ġcef di","ĠPF Q","Ġpos sible","))}, ~~~|","10000 0","ĠLe ibniz","ĠLe bes","ĠLe gend","2078 79512","156 28","]_+ ,\\","Ġadfg he","asymp totic","Ġcont rol","ĠcdH E","ĠcdH F","ĠcdH g","567 98159","110514 3","lti variate","Log arithmic","Ġmodu lus","69314715 68","Ġtransformation s","+... )^","+... +(","-... +(-","-... }}}}}","112 938529","314 5729","314 1814","439 16315","564 1875","564 421643","632 12","696 2786","696 157","707 10678","957 4","Ap proximation","Mo ore","Mo bius","Mu lle","Mu ltivariate","Rad ial","Rad on","Rec tangular","Rec urrence","^+\\ \\","factor ial","Ġph enomen","Ġline ar","Ġdo uble","Ġdo main","Ġdimension s","Ġelec tric","Ġelec trostat","Ġ115 2","Ġbh GC","Ġbh dgA","},... ,","),: })","),: },\\","})}~ ,~","Ġ68 991541","ĠLC M","9980 6","9980 568517","3628 80","546 69785","357 96984","344 1939","346 74","577 7895","Ġpara met","Ġpara bola","Ġmulti ple","Ġmulti variable","2078795 1286498","other wise","Ġsqu are","Ġsqu ared","21047681156812794826243383279502884197169399375105861120584907854051282123028251185 21047681156812794826243383279502884197169399375","')}{( (","(., .)","06 789","084 1","0384 78425","067 1","0792 689","336 77816","445 3441939","527 71","532 8","699 5711428","639 475","665 3","6180 3","748 62","790 4","7320 5","7300 3169","886 2","897 346","8294 967296","936 25","9756 6","Ac f","Ass ociat","Bas set","Ca talan","Cr omer","Cu mulative","Cas ora","Che bys","Dir ect","Diff usion","Differe nce","Er ror","Fres nelS","Go eber","Gen eral","Int egral","Ja cobi","Jens en","Kn eser","Ku mmer","Kine tic","Ma gnitude","Mat rix","Mas che","Ny quist","Non linear","Nik ody","Or der","PQ R","Po chham","Pro dukt","Pas cal","Pen rose","Polynomial s","Period ic","Qu adratic","St irling","Spa rse","Sec ond","Ste wart","To tal","Trans port","damp ed","dimension al","eu doinverse","ero pyramid","fund amental","harmon ic","iro nment","vyt z","|)! }}\\","}Â ·","Ġpla ne","Ġdispla ymath","Ġpha se","Ġlo w","Ġps eudoinverse","Ġine quality","succ ess","Ġdamp ing","Ġenv ironment","Ġfactor ing","Ġfiel ds","))|\\, ,","Ġkno wn","Ġtens or","Ġaeg di","Ġasy mptotic","Ġbas es","Ġbgf i","Ġbgd C","Ġbound ary","ĠForm ula","ĠFiel d","ĠBru ijn","ĠCor r","ĠCart esian","12756 7","Ġsour ce","Ġstat istics","Deut eropyramid","Ġcarg h","Ġchf i","Ġcfg d","ĠciG E","Ġcrit erion","Ġcalcula tion","ĠPart ial","Ġ4707 966484","Ġ539687 404944","Ġrecurs ion","Ġrip ple","Ġmeromor phic","1623 8","1635 9656","1679 56","1674 24","Ġ691 167424","ĠHef ner","Ġ735 759","})))}+ (-","1186 5476","2014 1336","64357 99806","ĠEquation s","ĠExpone ntial","Ġ875 68984","18521047681156812794826243383279502884197169399375105861120584907854051282123028251185 2104768115681279482624338327950288419716939937510586112058490785405128212302825118521047681156812794826243383279502884197169399375","24520 606817927","Ġoccu rring","8149 70746833","1407 3748835","6854 1","231387 12873","2319328756 20141336","}||}{| |\\","9632679 483646","75317 8","2805 34674","4835 69","4837 44","cefdA i","Ġexplic it","3597 46","4062 50","Ġbdch g","2623415 185210476811568127948262433832795028841971693993751058611205849078540512821230282511852104768115681279482624338327950288419716939937510586112058490785405128212302825118521047681156812794826243383279502884197169399375","Ġsingular ities","Ġcolu mn","Ġcotange nt","Ġcovarian ce","Ġcompone nt","Ġcompos ite","cdgh jk","6065 5025","60679 46664","Ġ24178 24","2968016 39344","5707 9632679483646","6928750 43","79424 4","5981500 3141814","861448 8757359","956478 3","Ġiterate d","Ġreaction s","43279502884197169399375 10","4330127 02","Ġproble m","Ġproject ive","Ġprobabi lity","Ġpropagat ing","Ġanalyt ic","ĠceHD G","054877 23","converge nce","Ġsymme try","Ġ25987648 16359656","Gegenb auer","568874 33677816","15918359 24520606817927","Combin ation","Ġargume nt","Ġdiag onal","Ġapproac hes","Ġresidu e","427894 79","Exponenti ation","Ġconductiv ity","89476568 3","876659 5","Ġsubst itution","ĠLebes gue","ĠLegend re","207879512 43916315","56798159 753178","112938529 1591835924520606817927","6962786 3178547","70710678 11865476","Mulle r","Ġphenomen on","Ġelectrostat ics","Ġ68991541 127567","9980568517 1129385291591835924520606817927","35796984 794244","Ġparamet erized","20787951286498 48","4453441939 23138712873","6995711428 6067946664","Associat ed","Casora ti","Chebys hev","Jacobi an","Masche roni","Nikody m","Pochham mer","Ġ4707966484 445344193923138712873","Ġ87568984 231932875620141336","814970746833 4327950288419716939937510","14073748835 5328","296801639344 2623415185210476811568127948262433832795028841971693993751058611205849078540512821230282511852104768115681279482624338327950288419716939937510586112058490785405128212302825118521047681156812794826243383279502884197169399375","59815003141814 8149707468334327950288419716939937510","8614488757359 26","Ġ2598764816359656 1","56887433677816 406250","99805685171129385291591835924520606817927 2968016393442623415185210476811568127948262433832795028841971693993751058611205849078540512821230282511852104768115681279482624338327950288419716939937510586112058490785405128212302825118521047681156812794826243383279502884197169399375","69957114286067946664 5777895","Ġ87568984231932875620141336 998056851711293852915918359245206068179272968016393442623415185210476811568127948262433832795028841971693993751058611205849078540512821230282511852104768115681279482624338327950288419716939937510586112058490785405128212302825118521047681156812794826243383279502884197169399375"]}}